E9B9244E
029DA946
345C8F83
A56099F3
22C8DB48
B2C9FFEC
A3723289
57BF7A7A
FFF475EB
807578CE
E737E090
48D9593F
5EB3B2FF
55DE4B31
0057F7BA
709A329F
8C98C1AE
787CECB4
FDFF1A4C
55B3648E
03422D6C
9059ECB0
055C8586
E7DE7384
819D6AD7
DF72F7C3
B4BFFD34
016B1B3F
37FE6599
7AD6A46B
4AA1C0F7
5129D72B
99A6F75E
B0823374
30CEB21B
3233C896
1FE369F4
2E3F14CE
BD290EA7
1E4465FC
B3F19A3A
3FFB0D37
B057B0AB
CB3B889F
B48B22B5
844B1192
36BAFEA3
38C26A10
A6FB9653
CEA9BCA1
CC1D9129
BB32519A
309E773E
6F66C6BB
E422A97E
0F6AC723
1661C9F4
C7CF7C28
0F6AED60
F074C11C
B14AF1C8
B439E9DF
E2826829
CF1585DA
