00000001
00000000
00000000
00000000
00000100
00000000
00000000
00000000
00010000
00000000
00000000
00000000
01000000
00000000
00000000
00000000
00000000
00000001
00000000
00000000
00000000
00000100
00000000
00000000
00000000
00010000
00000000
00000000
00000000
01000000
00000000
00000000
00000000
00000000
00000001
00000000
00000000
00000000
00000100
00000000
00000000
00000000
00010000
00000000
00000000
00000000
01000000
00000000
00000000
00000000
00000000
00000001
00000000
00000000
00000000
00000100
00000000
00000000
00000000
00010000
00000000
00000000
00000000
01000000
