4939f8a8
4cc8c024
838a2042
c4462964
28042118
69d2fc52
603433e1
66583119
b0bc6c6a
848fc12a
6fa9d164
5a0a6bf6
fddbe81e
2c74063c
279b51ce
8925eaf9
ba8d72e3
cf97b413
b1a5dccb
10f22712
57502dcc
1895f827
2ec71356
2ec94905
49b86431
21678dda
2a2b636d
70ce4efe
ea8ec29d
3c335e34
80013e46
3e2e595a
bf495638
9b5f6db8
b6b9b680
fede6115
3f3ea265
5d63e5c7
4d22838f
842cdd7c
935d2bbb
ae5247a9
57ad791b
9c581631
bad84fb1
5af137b7
a00bff01
8ce7fd24
4330c75b
ff5a12f0
1ba0cf72
004afff0
b2a66046
4345a8d9
1bee8737
d874e056
4034f347
6ef1f80a
5bcee634
cc1842d0
b94df6b5
0d9652e4
a5f4bc62
8e3b7184
adf9a0d9
18e68657
fbacb8ff
241e0a0a
73f1fe47
3d3e64e3
8ff566f6
99d2d678
b5e7a400
d8c3b616
4ad0d69a
30f27321
471c042a
ae22abfb
e22c82c6
9f80260a
9f5380d2
f3c4feee
1889278d
7b327a87
488cffbd
8aebbfc8
f567de30
51d12e65
ec35fd1c
02b6d2e3
5fb6e936
e5d0a2eb
9bc4b743
14de55a6
26b5ac3a
e8a150ab
289bd8c0
d12de3ff
eafc41c9
d4020231
fb59a7a1
015b00c6
b28ea690
00809757
7e932e1f
8647f68b
c407b485
a54a535b
322e3f66
9a90ebf4
7c4592ec
3eee9539
814c7c73
bcd83552
d28356f2
8f57f887
913e08df
72fb6f16
4403dc6a
40c2bfeb
b87c7929
7e9d6e56
6f9cea37
321d3b18
11d2fb9d
bfda8a79
4c617052
1803f177
