fcc04711
1f24968c
b6e322aa
8c4d0b90
0bbee1fa
5372468e
ba52b965
35533eb8
bcb603cf
4ebf5c32
82a73120
910511e2
e5481834
926a7604
ec7e7909
7798cef0
36f59118
000bbdd3
0374b0af
44856b62
0e3814b9
0f5daec9
c607f9f6
4b69c6f3
4a588cdc
86cad4d2
2b8e1644
28141122
902ec90a
130bbcc9
7222a46b
caf30af6
177bd8f4
d28a059b
1bc2d154
eb3e7a7d
f55157fd
ac37a85d
25dd4920
6ac8849a
88f946b4
f8c51538
26d6feb4
42327bea
9718874d
abf23c2d
78a460c3
7ae85515
038cc853
1fdc08b8
9dae1697
d2005f58
5c34edae
77f54495
4cc0e43a
ca6e37ca
8a02d9c4
152bae5d
daba52c9
eb869c68
e4affdc8
f90e790e
96ed2c0f
f25c7efd
8816e8e0
5329d75d
96a793b6
690238ed
b150f516
d191479c
afa53b38
166f03d9
d469a00d
9fe73401
ba1e80d6
2796fa6c
ae8bc99f
78f720fe
fb439a41
cdf9304b
beda2aea
da0c230f
67196bce
c42d1be8
e2b1802f
f148979b
89b9ae24
addd3119
70f23982
56ee9348
c886ae22
f9876eea
30455d6e
857e83d7
ee51b284
6867d062
1b6a4685
71c37378
45ebb3f3
ece7bea3
05ec0b0a
2e7bf4e3
4d823881
d2fdee94
01027661
8af4f15c
cebc10af
9963ecf8
41b0519d
74e7eb05
493db69f
a7d5dd31
25b0d2a8
ec9836f2
e15f15e3
d746720c
be3c19b7
5578cfc5
d3c1ad13
b5900bec
67d8ab3e
1ea57636
c60883c1
70b163a1
c6fe00ae
b9eebea3
de8fe3b3
ed06c4c4
a0384686
5350f1b1
cb023150
f0344e49
5ddb7b6e
1c7215be
7b280d3b
8f11c179
31f1a208
bfae9a3c
ab178801
3068a782
2ab95727
6f15acf9
e70ae6c5
5ea748c7
4b7d0104
c686a757
2b60c1ed
b84625bf
58c341d9
7807ddc7
9e8fa574
e982b4bd
e160b8d8
f3277687
57415f7c
1c1e26c4
aca6a99e
2665794e
93039a9b
b4e8900a
18381e0f
7a3416e1
0d53cc18
a5586f3a
2337a063
ad65eab6
c83def5b
ac74e8df
b4885f59
c21d8d42
5d0b8982
ab9504eb
699df43a
d2afd0ae
691d6b4b
8962d50b
60e35a8e
301aaf43
ddf1499a
7d2e60b3
a754a28a
f7e5f414
e88a4f34
96a2bb0f
afa92762
398b611a
3ab2db85
60a12fe5
515a1111
bfe2de60
63db65e4
9e1dc6d8
6ceb7d6f
072ab1b5
e98403f0
5d01ca25
cd610d36
2cbb39ac
00cc5200
85d3db7b
bdb896ec
473587d6
6691b804
915501e7
bbbbbf18
61a21438
a14cb67b
24bd8358
73729ef2
f7e84770
f6450a3f
34ce728e
26adb1c3
2919df84
80f5bfb8
3250d20a
7e750041
71ae13f2
5e3c11a1
967b43dd
9a02c8b5
b1d4d5b8
12a803a2
eb7963ed
d84b7542
becb7eac
76524821
630bdaac
aac6c85f
9099bf17
0242cf85
17ff6a0c
3610c787
a7c00448
a747c32a
449c8e7e
3e19f2b6
45fd520a
55773d49
d993fd99
9eab51d7
6844b3f5
265a55d2
6262c11c
ec13642d
dedc5ab4
790fa045
2d023e28
cb372ef6
1cbb70e5
39be9cf4
2f257d0d
578991ad
97919226
470b76dd
f532d4cf
285f379d
dc7412aa
1f6a9bb8
0f6f2872
77436e12
48108e8c
1e3cea51
d5637d7a
42ce626a
9ca6b9f0
a7a3a13c
ae3db8b1
f8b18353
759f8a39
fe7992de
adf781b2
d858bb35
ce33ef92
e8731b7a
0a32d774
b3eb43d7
606023b7
8e4a26c5
46b59c52
ec2248a2
34c8995e
1df542bb
4855b92b
257d4d0a
bb47f1aa
38c9d630
252a3e01
16b10dab
b6efb97c
9a7ed704
6a2e69f7
bc075dbb
ba16e9c8
84a8b6d8
d775991b
096b43ef
cdb45b16
a9a705c3
e8b1d34c
d50e8ca3
0566e334
f4635c15
d5d7a3af
800e71a0
34d122ca
f5b0b268
8f3fbb53
ff030636
c31ee94d
115dd67e
ebba0b86
5623cb90
f4858a74
b0752f50
5cbd2cdc
d6d5e3ba
488a488c
77994025
0fcbed2b
6b07e77c
58004144
da5a9c19
a04cfe13
88f650a1
168167e3
27a1467d
d6762456
b30cfe53
8111edd2
79fd2580
f151ea1b
06eafc1a
fd4fb34a
50269c6e
fd30c9ce
4e7e1947
4b65abe0
413376e8
ec30286d
ce2ef5d0
21e94b72
faa51c01
944385e3
1d06480e
b32f585e
bf64b8f1
62cf18ac
27800d2a
9efd8e46
82fbef3b
37acb294
9b082fce
917917cf
8380a8de
df064d0b
397bd2a7
631d2fed
1fe5bf37
a0aa5a31
54a9aeea
ba1f0d28
9c674d6f
4844faf0
18806005
78cc1a09
d7b797f4
384cba21
faecdb73
3ddd9323
40950add
94fe0c3c
d686f897
57b4d53d
711ef981
6412205f
43cb5308
b4d58f2e
1b467b56
fd3312ce
55579fce
afc64b14
9263fb14
15f1856a
e46f44f3
245f0a43
2b603224
1f66fafb
734d1409
222fa002
c4aa50f9
9f0dcf94
160e08ad
236626c2
fc1a3b51
57e69e4a
fd8cd132
2c304c5b
f6bae46a
639f714f
39e32e2f
730a5afb
48509077
929a1ade
46368999
e5946659
30d9e0c9
36743136
e81e2b0c
2f0c471a
a89f0e1a
9f09e7ef
a6333bfb
371bcb0a
e859c563
b1aa5574
a48e5a79
f2d168b6
0197f2ed
806b59f0
97da63a3
d3b61a59
13fb7bc5
6b01068b
5e24371a
70bdfd2b
36b3d103
2b066d85
f4b6539f
352a9f20
eb99fc95
ff90452e
b4d4da66
4d219e06
67ac5770
fae1f9c9
532093ae
702eef2b
9ff82ec6
cdd09bc2
31f4e4d0
e5ce3bce
a25d5708
f482a9c8
a562c69d
8d4754a5
0d1ad35f
660e07d6
e7ee6042
63ab5fba
9759741f
afefc39a
8fc94e9b
f4647ac4
d17bc624
0c098261
52e7bebc
a5b2f36d
53e9e694
428648d1
c7d05563
ea06d093
50f5240d
ca95bf35
1c3ec699
0ba05d0e
d8224fc8
1272aa1b
a05484fd
5b9924d5
315ac79b
14c24637
79513ccc
6264c34c
73cd194a
f30150e5
de5d0a3c
9696b4ab
81f80923
dfcf2ba6
ea346ba7
6fa03a0c
ad99cf22
4031d9e3
d3949152
5fca658a
50639cee
a494512d
455ade53
2ea92395
3b450f0e
c80ed334
ccd74f31
7ee16560
f6155e14
15f626fc
724acaf0
84d22cdb
27dc00d2
1acaa5db
f97560da
5489d636
613b798b
6b3074bd
97c1f6a0
5633143e
83d30973
e7453851
503862b6
7dead5aa
394e98e7
869138f4
cd9e5645
126c0e84
79041583
50696f6f
9730c4ee
958d59b7
41c51bc2
526e14f3
60fba3dc
24c646d5
01860d71
aad95d8d
c91f674a
cab0340d
5bfba92b
89ef5eba
6d797dff
37f8759b
b48c4629
10b9b250
bf6c2bf2
484eec8b
c1e85599
b71807c3
db4f04e6
77d94bed
46ba3e6f
d2b11562
628dcfd9
2e07cc87
0e5a026f
711078cc
d6b4ecdf
60ab161a
f5b969b8
7325de08
177a69b4
fbcde8dd
8f9a5eba
0060b1ae
4ba807f0
31a7dde2
75667e1f
8b900820
f6578fd7
a4ff7bda
fecadc1e
c8d38d22
e3901a37
1bcc9be4
995b5bd4
9dc2ad29
b95cd5ea
d3eb6b75
f8637bb6
5b6284b8
15c779d4
e35ff777
a7bf5802
6b16c482
d8965e61
dd7568ef
2bf25ab0
d693102d
2d62fa97
2ea38c77
0ffdbf88
f68da04d
4f77b075
2d9b34b7
a2dcd1ea
d032ff7d
08390a77
9a7abd99
3cd6a238
f6fa9f72
d24bf7c1
e79b0815
bab3de85
c222c962
08c889a3
4d2eb910
a8d0dfa3
1f4b2393
45593d66
a72bbf6f
b766f478
8a86883a
b1432a57
2107a878
59b92079
db97a7d7
6ccdd161
ddfeaa85
65be031d
bc577145
029a2adb
4c56642e
8f5c9e55
c5aac12c
aa2bb662
884caf73
cfdbac73
a6bb3396
c0e0a8c7
eb1a4f13
511d514e
c896b14d
acd06bcd
789b569a
c119e8b3
238182ef
e92e8804
65a2aa08
1238a993
0e7d7655
a81912f7
b8f0a10f
290e68f6
6d166691
ec9fd5b1
832797f5
1b8827a9
a8aea955
6485412e
51cc7ba3
286685dc
8ca9fb16
ac32d007
65c91651
00993da8
7395d6a4
30b6ad0a
c079d549
dc2ef568
432dfe44
2f5b0fdb
94f98cbe
d2a203b3
cfa86e65
df4674de
2860053e
164d1620
2e068f7d
5baf0079
bd0a1a19
778caf9f
fd7910d6
e2e1494d
6b0ec44b
48165f76
f4db62c2
0308b80b
b0898ceb
9e9f0532
32d067df
624a6174
27f4e4e5
30af6c64
377abf79
f75cca5a
6a27f0f4
2f998b55
01064448
37cc5358
4e539b34
e3be9cb8
a0c12dea
851eaa36
40a6f214
0027095d
f542d730
98f3fe78
6b3ec514
0ce56de0
04aecd22
c44377b9
2f161a96
4710f063
8998b14d
d2b9f096
b751411d
c6dabe90
0a46a0c5
628fba81
a3441b17
5099e2a8
ec1b347a
39eb6084
0984dcb4
163915f9
0b75c452
50f9564b
0adb0fad
7c996d33
98aa53ea
d2fbeac1
c6e44f4a
347e58ee
39913cbf
fe83e1e7
fec752b0
bd12025b
f4633603
8b7a3477
c797e95e
274c13bc
861fac76
68db9ede
7b733958
229da0db
5f1b782e
21333253
a68e9e12
49b5a9a8
5e10a3f0
f0f31540
09071410
e5e7bbb7
cc67fea0
fced51a5
a42c1576
99180e83
f18687aa
fb34a48b
baebe36b
f5c7ecb5
d384ee91
e4725cd9
a607099b
059c6be2
7e4b66ec
ae6062a3
80736c0d
91b90078
725928ee
85da78e0
fb6086e5
35f9a900
22d0e56b
f1cf8d8e
4e33b1fa
d4620ecf
715c3b6e
21d195c5
7bf95c43
14377777
1ea75736
63eddf06
e5f2fba9
c3e89c84
daf733a2
2a46e9ac
6c8ce2d9
9e154131
62656180
4378b2a9
b1c4af53
b6c1129e
6d537364
28038776
8b4cc253
be5157fa
a2074062
c7f2a9e7
4507a48c
a9659772
ebf41121
a2b221d4
1b1e57d2
4406a191
6c53d5f4
c230de5b
2ec3efaa
059dd7a2
74ff4dda
b0f332dc
62a4b33f
7a36216f
17093a8d
e0c6af78
eee00230
52d30e56
1161cb90
03a582be
bd53e5fe
24b71e54
b3d94b5d
cf844624
c68ef17b
4b5ee153
7b099303
c24ca271
beb549cd
f85e94d7
dd1ac744
93831884
f029de14
b9730563
23125fba
33d30266
d5631307
6156d3c9
5bbec9ea
deb4ec93
f62dea95
f53d2731
a0bf02c0
fa60dc46
56fba9c1
fbc0cfe1
712cef56
893ff150
57935928
31c64cae
b940b8cf
e7c9b610
1eb2070f
52cbf6c8
afa43cdf
7919e8fe
0ac8a076
9ece3cc5
b575201f
092af520
4bcecb9d
aa3092d9
702532ea
60fdd9c8
b3f8b4ba
26e9df66
349df0be
48fd6291
77455588
b8cc3df5
0d928db1
ee32f33b
d2be3a14
d1587c5f
a135a176
e9d4d76d
d6d48543
112aa270
7ed64281
5f02dd39
3868186b
a4ddb1fc
c82dcd69
69ef491f
cb7b704b
93a92ffb
733660cc
45f278a1
07975cf9
309abaf9
db2f5646
73580116
6e0678aa
5031cd30
2439b514
c98113e0
4b50e627
fd1e6ec3
9e771c21
9643a2eb
bfc5c332
7518c788
f26b7ae0
41ed3aec
0e42e656
f1b847fa
b976ab20
347968f8
eafad73b
7cd95276
3c35d605
8fc6d175
ff8187b7
16dbe34c
1279b9eb
181cf2e8
e6e61dae
c99f34de
b4b63eeb
422dd8b5
d9a780b4
0b4a45bc
674ab471
8f7e2f73
470c2f52
c18aba62
7dadcb29
bab1d1b5
d9e918a3
4e799b0b
636a27ba
609aa942
f3d7ff22
73b156cf
c2292c84
925bac9c
2c04ab75
040bbfa1
b5ab5368
feac1c8f
3e233e55
bc835218
8a05a084
a88fb258
42d9cefa
bb900011
b4439b1c
1e68c424
244dfb63
ec61b444
aa2fde15
4b50c9c4
b09249cc
4ce771a0
77d7538f
c737ec8d
8c0ee1fb
7ab85646
43cc7261
90c6e369
18052a19
20d32fde
f4734ccb
e85cce7c
ef1d470c
0b5dd4dd
9461278b
ca663abb
63baa0b6
89483fa9
b51266fd
5a5e1c65
2568bab1
299d026a
a9c2b75d
3f1be8df
1c839e97
0a30fabc
9b77d7cd
c9e0f5f3
146ab92d
2f93069b
905ab3c7
50e13f8f
070c26ae
acf09ad9
6e0b6bf6
0bf52b43
ccd2ba31
c42a2855
023fad80
3ec38097
6ebaca37
c1a376af
08ac88ac
208b4e3d
84e1a11e
ba8336fe
cb8a54b7
6e2edaef
92b5ba20
24580bbf
8afc1efe
166c9f87
e06945a6
3be6787c
fd0b8d2a
d85392fa
edf1e26d
458ccd18
e85a880d
24e55b3c
5529c3f5
74d0afde
4e9b3032
1a9d3d1b
54ca9455
30435ae0
3cafd073
fe87b563
cf7a829c
e1697bb6
45ac079d
982c92f5
8b334d57
a7cbf151
da33642e
6e7188b4
6fb0a0a9
05aa6b78
65fbf878
8fb113de
ae3d4aa3
c4ca101e
6e0abd05
f5c51c59
750171b7
285b5d1a
0e4dd9b9
7c7b4498
b5b8a7ac
dd6a8bcb
bdb11d95
beff43a4
9a335e48
73b9c50c
12ada8c7
8b79ef07
0acc80dc
37da5c72
48e7ec0c
047b81b8
f68f00ba
57dc03bd
63d470fd
2fef46d9
214a2c2c
abd00542
5ba344ba
7de9e125
0063d6fb
554f30a7
d8f4c3c4
db974801
441ef1a9
782bfd06
fd741a0f
468df167
2bc0ce3d
017385a9
2dbcc7c4
c65f60c1
5b91c3d7
5f21dac0
c9768e77
f0bf68aa
573a39d9
a770c1e8
c5350e9a
2fedbc50
1fb13c19
22ce682d
8e4cdc7c
3810fe12
d16deadd
7bda765b
8cedfd0f
9df11d03
02a81b22
012b19be
7c6029e3
176845ce
967c01e6
23d37742
b0d8e2dd
888f8c4f
13c926b2
22af2fe6
8ec8b952
2f624179
53b3e8a9
2e0441b7
d128fcbe
b9cce257
4aaa0c66
7508762e
bc8d12a8
38930542
fa21fbde
8afab62d
a7e93e71
096fac0e
36bbec85
3759364d
a6614754
1572fb53
bb4832e2
7070d752
96342dab
3ea0e4d3
d9550763
95a59a54
f24e1e0e
fb4170d8
ebc3045b
18c5d9a8
79f3f433
ff7b5a9e
a6a8711f
ebb94c6f
0bf6497b
69b6de52
9b13d4f2
64709a17
9532fd8c
cc690b56
672abe50
90700e2e
ebd41185
b92204b3
184dace6
6e366ab9
4c2ff819
1430a694
751fa4c9
58c145a1
efb190ca
74aefb8d
de17a1e0
e187ad2b
1ea26707
b4429d41
598ec76d
4f564f56
31242b78
b43a6e67
226e6d8f
05f2f440
68ee98b7
035aae9d
76bad85f
293e8e81
2f9e7e63
62c37aea
b972ba28
e7227ca4
5ed79132
53806c61
4e0b454c
01dc6fa2
01c9e6ef
b499a56a
e21e8ad9
46247709
c81c9b8b
5c16e94e
c06d157b
98529703
027da04d
f0822549
bf324bbd
7755f48b
af53f36c
4ec8edc2
8a647b64
5560cf79
7d60fe5b
b6699082
8a5c3511
2fc71b61
3a4dd53d
1d904722
19a6672d
1b85e25f
aba7bbe3
6edacf00
f58f0d06
f587991f
5c32998f
6b822fd7
c6e9a23a
e7c70c47
5822c7e4
6d376f05
19fa9930
88af314c
2602b45a
cef0ffad
1e4ea051
18256318
5d0b8174
a762df5b
46b7b4f6
7e1ea9c5
c91bbcc8
c782473c
5eac2682
c729ee89
d63944c2
b7669550
702ffb96
9d992491
96a0d947
ed1ad8aa
691f8a45
49717bd1
d8c1aaf0
19125d9b
b7e0283c
1d68f924
d08d5cc5
89981dfd
a632f69e
9358ef56
36eeceaa
5a9637aa
505c036e
0548820f
940c5c38
ec412096
eef97e73
1d6ca2e5
c0de3e47
b246fa02
5d1d8528
5384540e
cfa2383f
fe158212
5756c039
ba5ccbc3
a0d67c44
f0eceaba
203a58a7
207be598
fcddb69c
c8b8d36e
1b6a42ef
2b986d43
45f9507b
ce95ccdc
10aeed89
30ad3444
39cd1c5c
0fea87ee
bd888bbf
ac88d0fb
0e4b5110
3bb50652
c3518ccf
b885f3a5
0c0d983a
e1179df9
b28f93ea
6859c6f7
e53c9b5a
f68ec38b
c751be64
36ee32ce
b541a54a
047d24c1
baf51409
1c79d2c2
3d384229
0dcbd5fa
71d816c7
4165bdb1
695180e9
1f307588
cba3ee36
d15dac97
f6ee5c06
4f480d9b
3e2bfefc
bc5b5841
f1e6e79b
156030d4
6c73e071
41d6f902
5fe3cf84
4951d5f3
6f0e77ee
e7a94f33
fcb3e1bf
eee5657e
6968cf2a
938883b9
46134662
25273ce5
1197a4cf
90e77422
58f9e7fe
cb1debf6
d71191e4
ff036ac8
ce56905c
20644b6f
1ecc30bf
39bcadbe
4709f385
6f126a8b
d7b88edd
0043d61e
90bd7701
7aa52148
efd8d078
93bfce39
7b07a493
77c901c5
89701b59
fdf2a7f1
ea3994fe
0d7dbe84
08e00a8f
68e98596
6720d8cb
085bb727
61cf0ab2
95f45d25
72f9843d
6a5313d8
54fed92b
a5f159ed
3dd344ed
8d408846
5c6fa120
94c4bfc1
6098ad42
936c1a28
be0388b3
8756dde3
ab3c278b
4513da8c
6f898744
649b78bb
fa817705
e20037a0
2278416f
23d2c5f7
812e6aba
4afc4e16
95865567
fc67b844
743b47e9
c50d7c92
893606a8
71f7ee2e
cbf57e9a
8b1dfb37
a2b2adee
c98d2f6f
e7546414
31a3f542
19964b25
0080057d
d720150f
2b04ee22
e176e218
802bef7b
6f944d34
1244e495
0a6bc94e
d60b0b8a
3ebc1aef
970dc8c7
2ba4afe2
74c75451
a903d0ab
8df0cdc7
978b3e58
b1f5e0b8
c4841f01
33cc1787
ebeb0200
c1f7aa12
5322d3ff
8bdb9993
5a071438
201fcc6d
6de55b0c
73cf4ef8
654dec00
3192fec5
1219366c
97a4cd52
d9014f42
d48f6e25
28e1555b
f1354d01
ec68d5d6
cf66b2c4
64e749bd
33d3ecc1
3f899c17
e698ee32
d8920686
77f6cc07
09ed63c7
04ad0dd4
389f643c
10cb8cbc
da616831
4cd32fb3
353898da
5acd0969
ec50b43b
8aaa75c1
f8115564
0aeb45db
7ce6b555
f7e5d713
475fdcab
d20889c4
e05cd382
816104dc
4f725778
b2a97c1c
a48d1577
03378026
618bd91f
57ff8ed4
edb317b1
6e3cb0b0
d0739ad1
1f715384
fae85c69
aafce412
52c80b18
a6710aa8
e49d3e4a
e87143ac
a9bce07e
aa904bd7
830e1e7a
5287a20f
cd2a1d07
1f7a1002
cddca72d
13b513e2
2fca8100
f70f1553
58bdf352
bb798c3e
6bf80cb0
d14ffbef
5a8e8079
adc11c4b
da6040ca
6974f13b
5038a0e5
2634e266
1c92e855
230667b6
3261acda
2438c17a
93ffc6ad
627d180b
01dc836d
b783cb32
600264ee
9ade2e06
bc759127
a394859a
22e52b6c
8b946262
666603ac
3c2d24f6
421149a0
bd79d981
3cab5189
26e9d600
39d2dd57
4f3b5e4e
44bc31aa
4b9ee2bb
f25fbc31
39d4228e
e7d1e329
3b7c1101
43423054
77643bcc
6766e21d
a8c8a364
3a3f018f
af43baf2
52cde074
5aafcb99
095b5c04
fdeed11c
b4e5f6a8
e5acbdf6
6c3f3980
4464ba50
4cb28e2f
e6e36613
49f66e41
49652eb5
e36c1ea6
82852037
959810fb
89aabbe2
ab8081f5
71f01edb
b390b2b2
d26e5115
d4d45087
d2b04d42
f2fdd944
25b2654f
5f4ca02f
9bb830cf
9614cbfa
ed997600
afa4a6d0
adefac9e
0d00791c
bb02f81d
7a728ce3
db76dece
e920a383
b2dac9ca
32648959
e47868cd
f9d52bd5
2dfe2c4d
1365e8e0
62f7c135
5c4f00e5
0383c9f7
491c164f
fd971bd8
8e249365
0e38b628
1687c888
98fce26a
2e119844
9cd53fb5
af25005d
dc5714f3
6e5c0a63
4fc14ba2
f6f99896
55b1433e
83b026d0
326c6fb3
cac62698
ee93ac9f
4bd47069
3eda6b31
f83273cb
6aea372c
7a25a029
d236edd3
1627d522
4667e790
41e48431
42daab74
d0c5cb15
46a01ed1
6f0c0b3a
5cae454f
3f4b0470
b9727677
fedb556a
5bd2e1c4
9c41d4e6
5136936b
7cc3f8bf
53ddd722
535bf2b5
c552320a
0ace4d2c
078a1f18
befe5b34
aaaee048
8b70d95f
8c23a634
c8c939e4
7cdeb5a1
adaa3650
2ed2c96f
99fa2bc4
09c2b4a0
e397005e
d4bd2547
b5944077
d7cf9942
f58407fe
8586e22f
34aa93b0
e9b8c918
c3ecb35a
54feeb47
caff474a
1c24d32e
ddd4b6f3
077e82e1
6fbc7476
f600578f
9ddf5de5
e948760d
9098b222
57ffc4c0
e478a347
33dfbf1f
4ed7ea51
38748e9a
1a4e2cc1
9a2e41bb
0fcaab7e
b332c192
a1a095b5
54a88ae9
1c22a7c5
03cf8e85
2c4eb577
a39e4aa2
e55781cd
b5236b59
72f91920
99288240
d6c12bc4
8d5b0ef9
d05a0bb5
62628d7c
a409f9d8
8a802725
d3e9f929
555ba77d
879a29fe
0e3c8e63
37be92d6
8ce84aac
4864fbf7
d36cec1d
cdfe93bb
779a57ba
3efa526a
5cf596a3
39c9d0dc
423ba940
4956be73
08b32278
574648cb
2e47af5b
dad126df
e5aba788
c2497439
561f3eba
9ed71ace
7e70c875
9da382ae
95081cb4
de7ec2b2
50545078
96445646
03531db4
c5f0c3a5
0d29ad07
00114bf7
841e2d00
0571c8db
3910b3fd
f3f4945b
661a7d64
c590ccad
87188ccb
b47adfc1
864a4632
421204d6
dd6a96ac
c618709d
bf7e8b62
0b4bf2f8
b7e8778c
753a04cc
e6714156
5964edf8
d84d7e9d
8a1bdd73
b5f855b5
bdd2f6f6
0bf64d2f
75a9aba5
1e82b7b9
761d48ae
486c818f
73df90ba
ab88e127
689bf373
cff0392e
6aa2832f
538d2192
a6c2930f
a530bd12
f36280f8
b5a6dfdf
d7893509
2801d83f
e06917bb
24a00eca
4fa62861
03d3a2cf
24b9056b
f6376ba4
fbdc995a
b84a2125
653e2804
14627229
63bd40d5
64a8fd43
4dfee306
2453c958
5d058bb6
baedee73
9c883829
8d38c0e2
6d79a74f
8d139975
300f4e07
e3098749
1a5a9cb4
c9fab1e6
536bbdcb
5926ed65
d8ab8503
ad24a47c
bf0de17c
fad677c5
acc06943
3551ea40
c6ba6834
02e8c2c8
34cca8c2
3fb9f220
d61c7744
2c6ed826
bb538adf
b2728d4c
4fd6f20b
44bf9a71
b138b37d
5786c23a
f1ebc296
f6e5bd69
2fa47e1c
9abdfa26
55e9f590
dc97eb5f
32ee1e39
fc787e36
85161110
c402d818
05f3cf9a
f4e19d96
b79f06d2
52047391
9f793c59
03529ab1
0150cf3c
15f3de9c
5b1716a4
0cc31007
8f1b2bc0
b0b2d237
f610031a
e30eb63e
c60b2e79
ad1b3944
0b04d94a
f8795935
858f0686
19931033
83559d91
aa014641
49a14d15
7719e94f
aec6b953
a6fe672c
07786309
17f355fe
35c1733f
62b15671
9eb4bb91
26833e56
d2c9d151
df8f6e1d
f91be183
f7ab61dd
dbcdadc5
6479e809
5ebbdb1c
8ca743dd
31b58d99
84f44b14
d9e015bd
fb81c763
952d4c92
624234cd
513bd2e6
68ed7a0f
da802dad
83797eae
3e6297e8
672fa636
d340a1d4
c7a32144
0bb55102
acb8bacf
4ac6fcd2
8b0deb1a
8cfc8ed7
62d91d89
3af7941e
daef98d0
bd0bae3b
c4ab3019
2bb4e356
3b6af368
affa65e0
4f184158
25a109ed
c274816c
b0ad273d
f4d64146
1d01adf6
c974ded6
76d729f1
11c13d26
d6bb3248
c72e2bdd
096c7d67
88876537
9aa2c851
4cdb7ee2
d03c00ff
92444963
201205ef
f91dd72c
fe08066f
ea538255
a4338aa2
b2bed6eb
d85f023a
50cd57f3
fa6385f4
4d0a00cf
e29e5a21
3ba4a7bf
0eb6ce76
d94a246b
e72d6d28
a7840520
e0f464f2
993c6c8b
dc97310d
3705a9ff
815f6d6c
7a5176b7
06bf6d47
66fe2c9e
ab48cd9c
9403d572
41b8cfa0
67866113
4c0253b4
aa6e5384
3d4ce2b5
aa3e2ba4
161a8c09
58b1bc58
0f97a9f9
8cc85501
ba234860
2e17f94d
b76c836b
24249087
438687d6
0b73e1cf
37928093
bf8f56d4
06bb57fc
e23d97a1
01d4e14e
33fc548a
0de721ff
8fe31510
b8703eb3
e0a863bd
143feddb
4d5fafdc
1680bd72
78699135
b24a8c90
206068f8
4eb683dd
46266538
4af880c3
81ce9e33
db2d258d
52a74522
ef09141b
3d01e246
37d123da
6f5c6cf7
dd28c24f
fe77fa27
839978de
d7f25aa4
df832cd1
874fdbef
94008814
a92d4c7d
a67046dd
c5878a74
d47d750e
17be8bfd
f7d485c5
fe1f9a7e
adc6d430
2f509f49
6de38f3f
15207041
7e111f0f
80fd01ff
c362a5ad
35e66cdb
fa96b1f3
937d893d
cad3a925
ca9e1a02
aac2eddd
334a06e5
0af49ccf
41514d5d
7bb80348
e9af4d12
039a8082
25ca27e6
bb4dc0b9
ec0e573f
780db36e
6e864303
72b40964
bb5b45e4
84225af2
634475fd
fd6d1585
de87139d
9985cdf7
598bad04
f9cee3cc
a7ddf889
6c73cea8
722933dc
a7e59376
21bb300c
c3da76a1
e2ce3963
04e50d88
ecc8b330
bc4d3ef8
7e867274
97cee408
adf5a8f2
3c226c78
12683e12
3bcc7348
a0705959
3171cb11
df3f51ac
421036ac
d113bbfa
f31eb38f
ddbbf00e
0a04ec7c
5ea66b6e
a5cecfd8
a53f23ea
fca2f1f0
4f2083b4
f11d0b49
533dd888
0705aa43
58beda76
2ae7b3e3
fbf9ba1e
7d34d0d8
36a307d5
58c315de
6ac6d81c
c8366b5f
73305c2a
737061c8
cd5536b3
89c5760c
711d51d3
40eaf132
6e75ee61
e0f6b870
22beb83f
aabc0e22
b84677bc
58532b6d
58131939
e14dc7aa
bb58ea3a
cf839e9a
53417033
90a65fb2
11c5039a
bd9517b8
8bcf3d11
a1e75629
2f3e94c3
403d5214
46c44948
85e36701
81bd4137
65f1a804
8a2da312
150133df
680ec96f
ddd84298
557d3d81
1806fc60
cd2159bb
ded94cd6
196cc3de
122b5169
cbda7869
bea9a264
3f66a3ab
d5dc73ba
b9288d7c
afae5c19
e383b39d
dbff86e4
02c30b94
f45a8b17
62243302
a75024c8
81d13699
5369c539
6f205c72
73fa6922
9bb22d15
cefba349
1bcddea2
b4986d74
ec9df4a2
69a8e198
c528bd3e
63237628
bd51f0ae
b9053a03
c819d672
632e07e1
da54ebbe
d9603d54
424cd8c1
f65bcb25
1350d417
5aa3eb2f
14fed6ff
3ba03c6d
ca4d17c3
c196a320
5a40d707
d16c84b8
815587f9
518608e1
efa568f5
9ed97be8
0292c644
805ba80b
0b9dba43
65e48c0d
cfc55335
45124e56
9d79b283
93b057f8
f90fd052
c23f7cb2
8111e6bd
03e187ac
c9afc271
c1375ed5
41b5a6c9
b294dfe7
f4d8681c
82d694af
bef287aa
e3a692c9
f05bd2b6
a8d4baca
b3b972d4
bfbc4b81
0e280823
b5bd5e0e
e6b8fc6f
a7fc86dc
9250b12f
da533664
289ce001
8fe1f7f6
8a0d05c0
f9249a69
4e85ae52
43a3b120
61e3d011
2d50cf1d
1d65caff
17c56b73
70defeb7
fb324c0d
e1047a71
8ae1bf88
ef146022
9c979e6f
e8ba91d3
84e6d4a8
188ff493
aa61dd96
cadf20a8
b86a2d63
6609b1bd
0e877107
e06c6d7e
6df16133
5c5b501f
0adc0605
104dc01f
65010ff1
e440fa98
716b9301
de9eda5d
cacc4c03
fd77a1e0
6b21e674
257158ec
6734c391
6c3156c8
b48b70d2
8f3f7bf6
bf1a6d26
85ca12f1
9edcecc1
5c2e4693
e62dc813
b6d19e4d
04b25003
80d812a7
e6462065
1bdf5252
b1406b91
4227b30c
dd1a0ea9
8fc54bff
d25c67cf
89eca235
39567db7
551e9f09
d6c9ee8d
2c6128b5
614885aa
17bacb21
b045740d
e8053865
d6a5f68e
0eda4633
3e246c44
8faa072f
b2261895
20747594
b108f196
b1da0e58
23a67d3d
dab8170a
a628ec86
4a0ac7f4
b0f6582f
ff7c0d2e
6b2003da
7915c9e8
903cd16b
4b81fb02
1d18e2f7
76130c07
9318bc06
e1749ac0
7907d6d5
8307b445
cef5bcd7
7de31579
c7ae68b1
0c782a52
00b9e582
3d097ecd
0b0fbc74
f8b9fbb8
d9bd0f79
0b3d3766
c00d6086
bed0008c
ea40c7b8
eff37a55
edc091c9
67d283c4
41abf11d
f02a4273
d7a996bc
bf4c315b
76f1730b
115d97e8
a0068d71
e9bdb376
caa27eb7
5483893a
2bfcca62
f13afa1c
f12eddcc
d961ec3b
1af4a20f
994c3814
0538b257
335a2282
9f868c42
b7353172
3d17dae2
6ff5a2b1
2bf84238
d66ae8c7
cac8c022
1612af14
f98c778c
8ef0f94f
749b8fb0
a62974c9
e20296f6
b42b7165
2c83db52
6e8bce33
ddd2e6d4
02d9936b
65945e78
3d811e28
e165a2f9
d4b56153
6308c5fb
bc20925b
998a4bfa
fccaf785
a84e8d02
f7f43d70
fb188499
fd11858f
aad22ea0
6e1822da
54e048cd
6f836904
4b16e360
617cb41b
acfd0a7a
aba4aec1
9d8fa826
30cdb56a
2962bff6
b6254da2
8947da33
21b8b6de
76b73d7d
2d31596a
db2343bc
fec4288f
38a96e14
1dd9cf48
d0137a4c
3c28f994
b4f742a7
217b2960
fea3b2f5
d9741422
1d17d5f5
ed6f2ed9
5a6a2b1f
1672c0ba
9f4fe7d1
84ed01f6
3eb55290
4592c47b
e4b828da
0ed036ba
b5f5a640
b4ed4cf2
0d331321
90198bc1
a06e4c7e
23603224
90eb11d5
fad90372
b6351a48
45b34564
10c83a3f
ed119c56
269b7ee9
55a0b417
ee534ee4
302b3406
76b0a18d
bb5bbf94
afc042d7
8649761a
c5e98f6a
7a63206a
269e2169
09d218a8
e8b5c851
53695460
69bf0ab1
afd86996
cb3b3cae
51828601
22148872
2a339c7c
be7afad1
0241fc7e
ec6e925f
083f7711
d807f343
23424d7d
29675772
31155974
3c0dfaa4
8241a177
22c620c8
b7314ec0
51d2a520
b890761b
1cff4964
cf985af6
f094f2ce
ebbc37e6
3926f7f7
54d25471
d792aef2
4429abbb
d80098be
d00ee965
848df39b
e0049f51
c2be2b3d
eeb589a7
aae6eb39
951aa59a
fd802c86
3d74a55a
135d089a
e9661d27
efc9bcb2
cd93647b
484d1e13
d239cb4a
38c9836a
39f8d3c3
725f8745
409f5fc1
b1aeed8d
881a7294
8451334b
81531df3
d6490249
f3279359
6c2e04d8
95682b65
8e26e874
891bfc62
ef0e58da
8ca045af
90eb909a
6ad4ac6b
839f4e4e
81a59287
509109e9
1f6bae76
ad51911f
9ad5aa92
05f4316b
7e396178
b790ad05
c0a443d6
8a90e152
6014fbee
250413a8
0f2e0995
66ff431f
52dcc72a
cff4c207
f45aec0f
8ed431de
2a09d160
349b2ded
e851e679
9f0cf321
08cf8299
7c544895
154c9dcc
3df0496e
f80fd611
1fad3032
cab9a1f5
401cc05b
77450047
0508c9af
ed500544
66baac93
ccc10f9c
3282a61b
c0f98b1c
82c67244
c61bcc52
5d7bd050
b9fd0b5b
b636d3be
19351188
98c3ad2e
eaaf57fc
9af03c22
18ac5537
1884b05b
951781fb
5df269d9
2c01f607
83164e46
933ae26f
b2752ffd
9c37492c
0f4d852b
322d3747
4f3ceaed
4b1b4b58
0b22ee7a
52343c3c
ed1a9f8d
ba013a10
004261c8
552d9e37
102649ea
c42f33f2
6db3535e
8444edc2
088005cc
6fdb87ba
0cf79344
441691d5
6b6ba2a6
c7cbde40
028356d8
ed62db56
29f05a5b
2df361eb
d9b601d0
93185e13
80118361
c3a5083b
b6bd7b0d
571af11f
8bd3462c
62807038
b56c6f30
1c17b303
e73a2f4e
01c5c9a8
8123593f
e3ae7c1a
4b333ea7
4f6f2eb7
94f0e896
28daf963
31a7b7ce
78731255
1d1e9376
0c41f95c
62fb3784
a63889c9
0f036441
8dd03c0c
82a85edc
f381930c
b58ab4de
29d54388
7d272e3d
3fc8192a
43e227e0
13d02081
1287d071
e942a3f2
612d35e1
5fe8286b
555fb94c
05e4f3bf
be3d14e7
c31fbbc2
21c8d2c4
25feaf8c
c7b328b7
0592ea15
ed41a522
81b7e7c5
cf0b9256
859ec7bb
f9169273
8902f07b
5188cd01
19588039
57b7b0cc
d9c87ca9
753d995d
f05fd027
f3eb8755
4db7ea8f
48213d96
045b3534
135c1d99
54bfa210
ea723dc3
9e3e134e
1ae68260
4acf4b6d
126dbaa3
f05e38f0
7a2ecaf8
84876c61
b0c7561e
bc314ac9
6c6f475c
ea336f32
97c4a5fe
4751a735
ab765c86
b846390b
96b95cdd
50f3c792
d961de30
7168e5cc
a205ddf4
89a8dce9
ccdbd627
a941e221
f75b60d9
add30150
2252d371
b1f148da
b5381f52
370482ce
0302c943
5fe8a3f8
e6feabc9
26cca5be
e54e2b93
ec931e83
973a0194
fac6d3a2
d219ef34
b8276dc7
4e682774
6fab37d2
2997762f
17140f6b
d6a5f3ac
804f66bc
d496df39
9d53496d
5f25e009
572d0f85
0f09fb90
c6512ffb
aeacb646
85a0f6b1
db356340
d74b95c0
1a0bab38
1740b761
55f613fc
0f1c47e1
e2bd2c68
7ac3e04b
34a47840
10a5f0b6
c66d1c49
55415309
a638d11e
f5e83fd2
ef349d5c
ac31f9a3
ee0447f4
2733785c
043cdced
aeeae808
4cd7c5a6
272ba499
89f471f1
d8831896
bcda7b6e
f4374f29
620bad18
b83d4ed8
e451d5d4
3103eb06
c7fd136a
95c4241e
96dce233
8447db73
106a4b46
8de370cb
1cc7ce18
e9886b94
56a9ce50
298f3f41
e868f72b
1cb534b2
8e15ddfe
d8a0b69a
41d5d7d4
abe9b238
ec98ed9c
89f6cf8a
6fdd8e5b
d6a82f7a
c28c152c
3a284c2e
c69c0e36
3366a53f
5eefcb10
6e31e725
6149d4f9
05edeac6
659d6dc1
e07e8b71
8ec6da84
93b943bd
3ba1089e
20336c5a
70367e68
9927a830
7d10c0bd
df3c71d0
3ffc6b31
9aeeaa5f
59450940
fffb1f65
f663aeb4
219c5854
49c30361
946bbf57
3b12490a
a14c31e5
66c8fdc4
7e688077
47e72f59
b4afa0aa
5b8ccee2
699ada75
e3e052d8
789e6dff
80d22a51
a8e0e89e
a23dea9e
cdb56ddf
d8d8c1e0
401921fd
2500ab59
dcb30ac8
cf6d8360
efca7e43
c71e6b63
6e5200cb
780f6080
0e2248b4
7ae4db97
90bcd479
374143cc
2c5deb8d
e1e3f354
8dbf54a2
bc7c8b7c
7131546d
3f780468
e7552afc
a35f2cac
a264b6e1
4272bc2a
ea91a5b1
e3e73a6c
ce6e0430
ddf7e48c
e0dab262
03166278
b1b216e5
c496fd9a
53774054
cda1b096
9dd3033f
0cb5dc3b
42cb0e28
20e4f64d
4077a129
7c16748e
78c8f688
db3a7dbc
0cc7c107
f674131a
b14cb357
0d0e7292
d8250b8f
5f3d8af1
4fe0645d
e1763553
cf674c93
1a73f6a1
c4423476
b11e2052
3fc1c5b1
1c0c8b1d
9323c57a
df4b6162
3a8d0cef
0d4575f4
20168e85
8294fbe9
da02b8e3
a53318c6
acb79d62
b58c3aff
fc5a478f
9a62a6d9
93e36a19
217d1187
269e7e13
222b802c
799cf6e7
6c29656e
ec6f71c5
705a9fea
e94a021d
42e2e2af
4835c769
d633835a
f87e89ca
58619a8f
13b4bb8d
b9cccafe
3f758ffb
0948c0a1
ffdf839c
5848d78c
d5e37322
672b56f4
a09a606d
670ab9d6
6d29b780
e3042386
d24788fc
8b612ffe
a7827a7a
4ba25316
a228e6a8
dec3cf05
8c1755f9
7c216ad2
ec4f808b
c737516e
c605f886
66652ff3
f4f80c5a
3cdb434e
2cf22c3a
e7997738
16fb9356
23f958c8
c1ee75d9
0ff797a9
93c3e6cb
ea6c6141
cb9752c7
6d5a7ec0
8685bdca
9f1a837e
e1adc8fc
e0c392c6
48be7203
4f5b251f
85ed5c56
aac0e9cb
8855bad8
16c946f5
136d297b
b28e487d
a1605211
5c6ace2f
d98804b0
bb64fb7a
937796c4
ebf4f9b9
975a1673
fbade9ce
e847299c
2697d4d2
bdb652aa
52231da6
44a6684a
89173272
7b9a21c9
6d15204e
f60c6a19
589e0353
92c5c893
c27329a6
63679324
b9cb8bc9
85b20aa3
ad463d1e
121a18db
5cd32259
339a78fb
bb5bdda5
967dec4c
7341cef8
240be46a
9924c067
d45bd9eb
8087ac8f
55424ece
303021b0
639ae099
fcdd1551
495c5396
c6c30e76
5909224f
55cb4982
695a95e9
1448fdfb
171b6aea
08b5672c
1183a0c1
6c3b4cff
481c12d6
c54f9db8
e6c83428
8efac123
16177213
2b2783a4
601a5e9a
d7c1e78f
f2487589
b10c8b1d
affd5b54
6273782f
3ebe0b33
70deb7d6
027c9e75
ee200510
a4d2c5b3
236db676
7ac5ba3e
9200013a
669c9d13
4f69e5fa
4c1280f6
79662140
0b85a188
08411590
209e7601
ddd59e4c
030a01a8
58cf095e
665cbd1b
07cde37e
5cea3187
4b984cc7
43c85756
e73f4c46
1836c05b
a3e417de
44496e51
7e4b813b
76b3faa6
4e1d63f9
08fbf136
f0f78730
6c0a21ac
14aa3205
3152ace7
3b42c4a5
9c61c4e3
bfd0708d
82f4a4ce
bdce6895
e878a979
3c41d575
09c9b67e
502117c2
9230e0f3
8076af05
1c91069f
707b5f82
cf043fb9
53c0b012
b356e4d2
e466392d
ec18f5b5
e6a25ed5
661c6211
52b1387e
8d8ada21
73ea7da2
403b3c9e
ad0e65d2
123864c3
ef8aa338
46edf073
a18215a9
3d07bc32
5bd38e2f
1c1615ff
5926c5ec
38cec127
3dba42fc
94c7aace
7746db84
325cb534
0f396212
6e32087b
bba469e2
5e1747a3
950ebcd1
f1657819
65aac2e6
62c8490c
c101200c
99b35899
6ae70d86
b0dc15b7
deb57986
f8831495
2a8fc61a
7d149e19
ce4823cd
eaae35d9
999bfee3
ab585e55
b31755cb
97541069
034a5b9f
252e4d1e
0f09eb57
3e7bd9f6
d11497fb
d5d0b294
ee658858
6e36b6f1
9a755cd8
7a717918
1d785b48
a08d585a
debfe8cf
7e53aad0
95acf973
d1acb364
50c69629
9c122ff9
48c3d7ec
ba377342
236c4333
5f3c6216
7a716881
c5bd9e57
a785d1ae
5b6bcf16
ae8d573b
152a4b3a
549cae22
7699053a
13579503
82678d4b
79cfcbaf
708ebf8c
332fe8ec
19839656
6757b901
9c598ff0
0817a84d
dc77c36a
cd6ad782
131d4054
fdb34c24
a167e46a
ecbb5375
4fc395b8
c3b743f3
6b1e7587
69b23693
c7b8e4cc
8bec623c
286ed816
8bf8b17c
e095804f
67ef7a70
e886e6e1
109c338f
50e1dc5b
db71f5d3
e7825948
04ecdc7d
e9f70e65
b94cd968
bc901725
28e9fbf8
cf573ae5
817c87a3
7db3c485
58fe0ea2
601699ad
89d202aa
daca5ad7
f951f69c
34994f63
5d0d87d8
0aa3697d
4fc5e67d
eb0adace
affccfd0
03f3ad94
ab74bfec
dd62636c
8c65df38
7c42790b
cb9fe150
1b1e757d
0d76812f
f2bace82
a125697e
becf15ac
f2ba77fd
dd04459d
c8e1ef98
32f8362c
4d45003d
8708dc3f
50a715c1
a3cde56a
1803f6dc
60ecc258
25880195
65ffbe67
371b5f25
d054ab7b
f0c1e8b8
6f8c6d99
6c898c45
a0f269f3
3054f5b5
402720b0
23721e0e
3a47ba83
2a3cea44
03666f02
a9b2205c
6a0282e3
697be340
dcc354ec
9c598d58
17264330
848c4106
131724f2
b9b37d2e
bcb0117a
ee47758f
752a58a5
18f3ed5e
025b0f2d
c5c06038
46b999f5
765a8f00
2478340d
37bdcd8e
299fecd5
9aaf1794
58857103
6eb6917a
df0065f8
e14e73af
00a7c943
fa7dc449
de95f478
35265d35
4ac72f0e
bebc5bed
316ce35c
01bde45b
be47e765
b10c363d
badc1d50
f1c9d417
200635ad
a8728ed0
4a3c7c86
283efb8a
308e34a2
fba289b6
c6c9c55b
6fd09b6f
7ca195eb
66c263a7
b5f265ea
820be9e5
45d3453e
0e8a5c13
fbcf6ec0
51298093
29ea9db9
3baf7a22
f6ded439
7d5d19b2
e4f34851
e49707b3
37b606d1
96cb1724
7aab13f0
3fca81bb
01e33313
9deeb802
f4185bfa
1a0d8ad1
69482c7a
e5fd0173
15e7aa97
7d0e082b
0cc23594
0869df5d
02fe079c
32c6dd27
da22f89d
dcbc8077
a0481a8f
c23313c1
3f062f5f
3fa6331f
760233b1
69fe51fe
610a0a1b
37e9c720
65614095
ccffbcfb
abbb1417
f4de543c
e596db7e
53416313
064b1f74
7e0b8e6f
9483b179
237401a8
51a288b4
f1dd3f5c
08ce2ecf
847de983
ac768c10
dc094c9e
1f18e06b
97e5a739
0141d1a7
df890c12
7b67ce5d
3ec17822
9464fbfc
6d0d51ca
4e531f8a
44cc75cd
386d33bd
59977c09
9a12cb48
98d5fc95
ba63ada1
b5433e8c
9a19cd35
c4fbad24
0b1b30a1
f4757a3d
f671b514
7d2fba0f
13d76cb2
d5edd724
52970cbb
8e5e7355
4ca72299
14cdc595
1f6b4134
8d52156f
68bcb22e
b7890ec4
24f7820a
ff382ff9
f86097bf
8f78dc12
f24ef21a
46039736
52ae977a
51efac72
7be828a2
b1396ea4
24196784
5f7eed9f
e8877c52
d0956b9d
7eecaf43
70036235
2454cd08
b5c3ce02
18413786
f71d15d8
02436096
91d749ff
1b2024b3
41090f71
470c5400
5f779377
8b0ffc26
35151a7c
2f4ac539
372bad2e
cf2e1823
a024d3de
fc0b7352
921cfac1
ee596bc3
45bf46ca
c80b98c3
36b13791
da8af22d
b48069af
f836c588
410bb929
b5e89f84
a6e11151
383b7e66
9c699ea7
eeb4c440
fec632a7
1dee0c46
170a2b23
7a51570b
88626d53
b284b41e
ea5fb15e
3054842f
fd06cb65
f3c61589
d37c5a4f
d90b6ecf
3fc13eda
076e756f
66f0e440
77e14915
878724e1
22012a38
c684066b
a3c563ad
99ab7a67
e00322ad
c218802d
4fdf22d0
41d78488
05e2cf0f
9f380b31
e21f2ae1
cc5a46fa
2725dc70
ca4cc180
b6153073
eda56d1c
53fc820f
83655700
d7f4ae14
6ab34dc7
ef1fe258
a4b0058a
d4a009a4
8daa8cf1
89fcb613
b07644e2
2c9d803a
5f429e4d
ca894d5c
3a21a4d5
0a653fd6
9c9e3807
845c2055
56d5ab68
d08e8f83
da8b6768
1521a07e
975deef0
9b8e15d7
2c67eff7
2ba2f374
f0f8fbe7
d4fba043
01c520ac
cd6deb65
02abfb6e
7e53ac7d
f1eb5bb9
28996355
33609e6b
4df66324
4723dd0d
909342f5
6614aacf
2cb10a45
bebcc02b
ccd79d4e
3c18e2aa
c57ae54d
196f9166
2c463230
7d14d305
be454667
70ddb31c
2c874485
94c89da2
58213886
18557182
f93c14af
b97a83c8
a0608c67
9af026e5
39d70a92
df74379f
61c59054
9962465c
d03466a8
2cca4230
5085e34d
726555f8
01d8f52e
25494ed5
65589b10
ef6cdb8e
3482d964
3e047125
991e5d61
51dbe1c6
ca2bcf09
fe3b5604
38fe62a2
f6570e77
130ffcd5
9c127bb9
47adcb4f
23897eb1
8d613926
ca24dd86
a2c9c0a6
d930d189
f6346a85
25082f31
2b4078a9
ba0cfd9c
9f4a09df
047b480d
48e064f5
50664207
30b55d3f
6e319037
4bf1c5c3
4af89d31
7018370b
22c02cba
24c12049
35db3bca
32aa8414
060c23f8
e4a42151
65657045
25c7e5ce
7a8c275d
1b32c0cf
023e6553
01080b2b
5a2ef7f1
f1e00770
1646c13e
60df1cc3
eb944ed7
c944567a
cc73ebcb
724b6717
e2ef982f
1b9b0c65
0d433c0b
59f08368
9368c6e8
2f5e8382
78e66ea8
4416b2f6
58548094
b0ace032
eb1fd48e
94ea7db0
ec6662aa
f6fc7891
fa6abcb3
8361a308
abea685d
dcdabb02
e6cecbf1
9485675e
39a2f88a
71cee4b9
0d220d91
c4b4f7f2
5302fb81
4a70a6ce
f0b2422c
9f8c76c5
21c28603
f4cc2388
5e75950f
92e60527
8bc88860
bed4228a
b83af756
fccf7ec5
45436a5a
7c88a068
16179a6d
cf76911b
02c7176e
be50a5f7
c9ebd9d5
56af701b
479fc0c2
56ffa659
1734d750
72049106
c6c078c1
d1616e44
e84237e7
50679c8e
60185087
1379b351
82fa7ddb
18fdf7a0
d26f3b16
0deee552
f7639a44
5ca8b8b6
bad0322a
1e1f071d
afd83fac
880f845d
0d1a361b
f17ccd80
4840d8c6
a7ff3434
428fb3f2
7b33de73
bf466125
f827c4be
dde38481
549b5bd3
c215a3ad
530f8f17
727b15b4
d5f77106
cb22443e
28249634
38f64867
1d066aa8
15a29630
647cd64f
d567ddf9
a861d890
1217a2b5
b4f6a314
5cd9d00d
6926b958
13e78cac
f7df6110
0c4bb220
512ae49a
a5dd282a
77aff68c
d8f6a65a
728aeecd
8b96f860
e4234574
11bcf6a4
0dfd61a9
cc18b2e9
6954e3f6
5f582f48
e44dd26f
e41b5ac0
95f11f16
4c7803e3
7188c70b
d6b23f4f
94a32fc2
ff936200
becff7b6
656b38a3
d09366d9
20f14682
616ed09c
77f540ec
634b0c22
b9002c78
774c3074
133a56e1
ab06016c
0217471c
623645cc
5d654ae7
eda34fcf
4db1fb0f
f8b77920
d48a7746
2503f904
64887eb9
706c3132
86014191
0b49c9f3
7828f474
52cbdafc
258ff525
fb9db62b
59806221
ba39d8e1
d60261db
23615a47
10d1ab75
734466b2
96fca96b
e96a83f6
ba01c369
2f17e1d1
8e4b676b
30fd5ab5
8056cb02
f02c624c
161cd8e5
c6aabe2e
7e13a02d
575477a3
e9c06e2e
a3bb9507
415f0f8b
a8332b79
19055bf6
85a34468
65fa67e1
04498c18
597d27d8
8dcd2a70
d396a6e3
cd2a550e
b5532419
71b88c56
e45c2e81
992c6b0c
e6958648
3a782119
bb6ef994
d921a643
49e0bdea
e9958db4
0631ea31
81278434
295aa166
e4e1bfb9
1ef27e01
afdbd1a3
a6f907fc
b7b0590d
0993975d
a1a84198
2ece1d56
9d1a5b01
41d16a20
a2b94632
cb53d8ad
a9e08830
0c054f8d
636d3b91
20dbaa86
1b879642
cd5251d0
07fcf8b0
6369d716
5704086c
920a6c9e
8009e1fb
0e8764e7
31cb881b
e0dde5a3
4a2a64ae
3daf3d7c
68e6f216
0543b83e
1ab8bfb8
207b302b
596dd77e
73fb6b80
808c67a9
7781c170
9fa1e2b5
063a48fa
f26a5e78
b3c6a6a9
a53e1245
634d447a
da626c10
efd21520
05074d73
2807ff87
56c85843
d337ce66
f631d568
9e4e1f0d
2b2ccb8f
b0643dd1
464ad55a
1074d50f
3c7864c7
92de2927
afff95bd
765fcc67
ed27c5e6
be8a22a7
94e1080e
512dc0a6
23662e55
53315e9d
afb25d6d
8c771dc5
17831bfd
136e3576
492b3a4e
5d04988f
e03c8d50
e82af266
1a1e58bc
ea6ec0b6
b6612082
b6c66841
f52c39b0
d1858d86
9f534878
6b1b3b44
44360fc2
07a29a86
b2efd9f3
d9591a3d
b51f7006
a8ea45c9
251d1abc
c27b5d23
1b716524
ed692ace
c89dc4e1
6d2ee161
3de733ec
c86edf24
7ef71b2f
e4585060
629c65a3
a928fb4f
f7cd2db5
3ef96ce6
07fcb769
a7bb9e15
2a6d2edc
5d859473
bab51cf3
3aa6ec3f
0b810334
2001428a
717d1e69
4d93f691
5d86a514
1f20bbac
83123de9
460ab807
11a55278
aa6350f2
da77be62
acb2041c
2c4e593b
de2c9f97
ad81e50b
a4baddad
a616c803
182b38e4
3af1028f
f41218c1
7d5986d2
9389a32f
060039d5
d432e17c
1a031598
2f344e7a
90063bca
5e309cee
e9cc08eb
18ee6386
e03b7ed0
4195b479
eb82faa9
43f23b89
d86015e7
f0947eae
b99708e8
f1af517d
89a0d060
d4350228
2342b84b
68086a87
bdcc1ebf
a4c6843d
adc3f448
ab15ac05
4d566f0a
ebdb6b9b
209e52f5
4d8c9527
d1f7ef90
a7e48fb8
46e7ce9a
6f5016a0
31497e8d
b36ed3ad
fd4d7330
f2631e55
3aec1c6e
cfcbef09
e7e88940
42258d6a
1d86cbd0
bcf571a1
9f72a227
9bb0be9d
432d1b36
e4f2cd04
9b60281e
bfe211ad
4e5964a6
a644ff8d
a08236a4
99e55032
489c2cfa
08651922
d147f1f5
bace8e24
750fa3bc
0a94afbd
300eec65
638ac752
3031a5a5
dac2bbac
103cc8ab
f2e323df
9de32800
f311a441
4f094144
3796b5b8
b67055c1
2a1dbaac
dae69208
91473099
f81c68f8
13b9163b
e702f218
8b1ac48e
30176f19
b210beda
ad463100
89729424
b79b070b
94d3edb2
910ca139
57ddf5c6
8e96ecf9
901b01c6
a2162a87
180d1dde
d0115f6a
e9904d54
7ebc1726
11e626bf
290ad0cf
e2aca74e
8cb2a115
d25684d3
5982e323
de36b03a
bc35635a
6e4d6cc0
bc767757
ebaa05d8
e6587518
d111ac0b
b241a39c
cd824088
103bf71c
0f34ca36
3bb03e28
d3552255
e9ef775f
2200b2c6
3c9fc6d9
0ed14ba0
b3a05023
adaae5fc
b8488a88
6f713752
e750059e
73ee00e8
96e28cce
9d06527c
59b50115
fdb83411
7ae4e1b8
3025a5f6
7108d6d5
a7c2f02f
f8715664
22bd87f2
27b876ff
67f0d29a
708822f1
d7ab064a
814792dd
13fdcc97
cbe3da3d
a8aa4da7
262b05f9
17183212
340b8e7b
38b95b68
b715a4b8
b3a0462c
821d051e
74fbe2fd
6a632e09
4b5f670c
193efe2f
a889feff
a35f1219
8f85c10c
433f3507
5f687d4f
f0a0ade3
d9a670db
6f46db95
7a96c29c
fe02caf5
f55e136c
cb580ce8
a0d8f7fb
095e48ae
7c1f88fa
cf1777a0
7d58e512
d875d090
89edcce0
9bbba0b8
c14db7f6
f9e9c831
cd41bef4
22f108cc
cdab1634
18394a7e
fecdf1b9
f1de1206
a531766e
4bca64ac
f43d443f
a81b0390
84935831
e7b9fc0a
fa9755c6
97ed0e1c
fe323944
32b5f045
69284127
54a544f9
e543c6c3
6d6bbcc8
f9b0a823
979039d7
c4b25d93
f161cb3f
9a90bb82
c0970932
ff0c7e7c
c7c4c5b5
a804e04d
f166a382
e05c43e8
6b494559
c14948cd
df9e6492
3a7b6ea7
50c1026c
6c00952a
9659776b
779edc5f
b956309c
9b1b245f
ac3ce528
fb8fca29
a7f21310
c0075235
9bf3dde0
8096a24a
80e39422
4b5e2419
b6944c6e
d09ee99f
623ab944
fe9882ed
fb692a32
1f354659
df623535
319c17fc
ad713242
ffaa7521
c494c07c
551ead7b
8a2648af
6aa62560
49007838
389c40b5
c5bd3de5
4ffa3624
ec305ebf
a4a0e1f5
369e6ec4
508d423b
20ba02cf
8399b982
5dc652a1
c0d747a7
49394004
5d44ac00
16a0f39c
b53abba9
621d8e8c
a85dcb3d
2dacdf80
11633b15
e315d447
837d48cd
74e7454a
54d287bc
eacde539
51150bc3
b0f6dacc
127cce90
48456fc6
73129771
22c06b9d
c2c82dba
d0c46157
2bb82eeb
a36d8b96
3af90a42
39ee0590
c68e8eee
62a2248b
a43ed943
99cb9e97
df1a64ba
b5b569ef
825626ab
e68cfda3
4b151464
7a38923a
aacd416d
2c0a8c47
04ae0343
829b312b
bcb9c315
824fa15a
0fb1ec97
411f905c
e6dc6f41
569859d2
a482ef4b
08bd192f
bb28b597
82ddf3f5
76a090cd
584b90f2
948d2066
c94f8397
efd6c56c
12748028
789705fe
219fcd86
1f3e5c5c
0a909581
076dbed0
74c75ae0
b7e8aab2
6c82c8de
7cb4ffd0
ab1a1db9
8855167e
8bd6c7e9
8390cb94
5d99875a
1f88f46d
c7d016ee
9946ba53
0cb1ef17
5443a2e0
3f9fa09d
8cd50d32
cd3f8747
42ff013a
1ca70630
d9594ce4
7e1cd35b
54bab31b
2a52a452
9842fb25
fbb54598
a2e43179
94f5877d
088792e5
cd439c74
c567b636
ff9614aa
912b91aa
e93630fa
daba2869
0ea013b9
ed227ca6
ab382b7e
af4ac91d
099a0e59
98809c88
b81696c4
d03d58d5
e058b99f
9b5b220f
00a3d2bc
365c9d05
83747371
f7a8c16e
848417b8
12d0cffa
e3dc3743
b749549d
47160267
02f841be
1ebd0724
cb600910
967c1223
b79f5ba4
76f4454b
f49ee4c0
6c3de8c0
003a3af3
05cc516e
e88e5d0a
f75a14c3
9141ec30
eb3c8395
c4f86089
92291f48
023f0e28
3f12b2ed
4a0699d2
98d1e630
6cb4aa2d
2ca08fc0
d8da1b31
62d17d35
1c666ee5
e49e520e
83753b64
4eb77516
5b971124
c59f7d25
b8637c11
b625dc29
a14a7041
10463b65
4ae4ed9c
2416fbee
48b4f42a
737e5f84
df5c525e
19edd83f
bbb2d7d1
700c8235
c725e72d
8e680a7d
58e4385e
d075801e
b8fb0f06
c2e0edf3
eeba7087
8c5fe78b
a0e22473
1cecde03
3e32a206
441cb00f
3b555e9a
14fcd7eb
22bd335b
9929d9d1
056d8cb6
3862dec1
90dde532
77111a1f
72aaf4a7
0b363a4e
8b3a98fa
a6488d52
9c2f37d8
f8ab2147
aa2af7a9
d92ae5e7
c5989f45
6f26d5fa
ea497180
f290c54a
229c788d
7395293d
701cc835
6cfedb9a
9d81fc3c
1d3949a1
bf6d0555
3375e1b2
0b20f02e
11a40c08
ef1fea83
2c07b759
8ff188ff
f706af70
ae13c782
16fe5e09
24388aeb
f71ff161
afcf10c8
8433ff68
302f01c4
6c0a7bc4
899c1a30
5f49f140
de5adb27
8d103a0f
00b9fde5
6d8d7ca2
b4742386
44d26fb8
8f3b64fe
240cb45d
9383d55e
1fe7adff
33564643
50e7716b
3eb32025
697d2721
4dc7e5f4
652eef2a
da29e9a6
f258b0a5
198266fb
30c5e450
0b824ffe
e94bdcfb
e260e6ce
68f22638
608b5ff1
1ad44c66
1763354f
d4f01258
2a804153
1efa4b06
fff2abe6
7d9618ce
1546c830
f1f5f1a1
88e362e2
20a0cc56
eabd5222
03a57b08
345caaaa
c17a8ad6
62e464af
a6d493a7
4f5ef86a
7a4ae9a7
44592173
b870f386
998667f8
545cf93c
1302dc4f
d8d94109
39624a46
fbd06845
de5575e6
45146afb
64ecf700
6a9e1dfe
eb91a589
d916168d
5becd404
b53dc8d2
9beabcb9
4ae64c6f
9603c089
1062816d
972fc948
64249acd
a839c13a
b695264e
442da53d
a0301e0e
fe0feb2c
5d09e588
35c44d91
29b1f4b8
32131aed
91407931
1bb22271
ceea1395
df3f15fd
07fd031b
42b45424
a48c1e93
263f2d97
3c7ef372
f9e20f5d
d75a8d59
8d2b71db
d620c02d
d123a615
07385103
0a526697
10c106d3
5d8c6dd0
829984fa
abab3b6e
3a723c1b
aa2118ab
7acb55cf
eab4b406
b95042e3
63580303
3f464c83
d01d0049
46c0019b
33835d0c
9a47ece2
68fadce7
f78d5c44
beb93984
e65ad2f8
d15fefd7
caa11264
cba54b75
51c82d70
0e5f02aa
2a1fc6bd
c8db4dca
c399f64c
6798099b
719731a2
feaee2db
a2e2a14e
1843e8d6
495cc3f4
3c969a30
a93a8a80
ead312da
02390bb8
28db3185
95b37471
9e1d0de9
dd2491ec
a69c8143
ee15dda3
e8c3bb47
b7c2083a
cb8c2116
a1519574
c5dd2d4e
07c48571
0f998b52
13784fd2
81578b3b
be1562a0
cf9daa29
dfbb2d19
ad1774a5
04377b89
81f38339
1964be8e
318ef37e
31718957
3e17ca74
395a780e
97bd7c53
7ad6e504
7d9a6d0c
e9cb8adc
4fc0e812
f078613a
499b0217
a0f6cac7
618dc721
3a2ba2c7
a8f90dbb
cb3a7105
b71c6348
12b3f809
59950236
b8b3edbf
bb659464
239d101f
d78d941c
f62f39a3
333550a3
297b323c
14ace4b6
78dc8f38
88476415
446477d8
4c92aee3
a1dac98c
30db152e
62070ea7
dce4c12b
a3423937
1868e6b2
30d6f88e
bf7e2759
0ecb16dc
d92b78dc
f0d8bb4d
ffbdf425
b7e9b830
eb8303e7
5983437e
2b46f5dc
4d636809
d4fac8e0
b81f18e3
c9e1560e
d272ff73
431f8ef4
42bb28ce
93283aad
ce8b8139
667e45aa
0fc26978
cda7fbaa
83e73f51
2e35f929
d720299b
0d626250
208b9610
c7dd31be
658a1c10
347ac54e
c15b343e
dd6144f8
5a092389
ddd09747
e8eb722b
27d4b5b4
106dc793
8e014c8b
21e03e7d
38d349e1
11fde219
79e91b30
ec0033c9
c2fdd2be
ae4ba4ee
e9a99e39
069ee724
cf938b8f
aa3949c9
754ab7b7
b0905252
14bfd4e5
b8b0989f
08e00fe6
39ca9fe5
7670ad11
dcae0a47
f44aa864
f6753328
d15fd12f
e851734b
36f80815
4db24e09
41651474
b0f554cf
329a72d1
a85cb6fe
d87d8ce8
8d363282
9a3629d1
5ae9b3f8
d214d3d0
ca27f322
fb9eae60
b3990886
875ced2e
40cd57cc
1e5a46b3
e4e543ab
79965957
3e5394cf
759e01dd
9b42649c
1f5c7e16
c747fb97
864c22c2
bfc70a9b
1a5aafc4
68a66b1a
c0287a9f
9ffe6602
0c923e87
9a450a0b
b72e6d54
94af7a04
e5d81e5d
c8376ef9
e14d149c
d3ae3f18
ac8a77ff
01109247
b291e08d
1c63bbdf
18cc8a10
1b83c1db
6caf901b
54256c6c
eac733f2
ba509243
4a255565
e6526039
21ed2e70
69e1b287
cc9c805b
c2d7e652
983338bd
10a9012b
d5bc4641
f5fbf0cc
4713dcfd
97538a51
59337839
3e3d309a
f94401f9
6fa67b20
54be2478
95cf1bdb
84792ca3
48415f41
7364186b
06e6cc07
d62295a6
3d9d59ad
6a4a9930
807b7036
22ccf0de
0bdaa7c6
4171fd34
b553b706
a016335c
f0b7e99d
727c7417
74cb9ce3
2a81070d
8773c616
3b018cc2
d2a28dde
ecbf72ac
f436f747
92b42cf6
6ef85b40
0bd6370a
bb85333b
5b625c6f
36b97704
3884653a
589b70db
dfa40fe3
c32a2bd8
104743d5
f794042e
eb73b0ff
cb8c9a33
8bdd5673
5f81a73c
ab4c2cc8
5d83e755
d0a1bd43
4cf9b0e4
b10eef02
143945fb
432fac1c
512bd0e4
88531c80
10b50e07
209f958b
09061de3
9ed8fc2a
9ea4e700
882e4b6c
d451ce1c
8f43210d
a6d4d69d
d6811c52
c78323d3
5f38ec00
fb389ac9
dd34ff9b
02466097
ec11ccc2
136e08ba
4007665e
ade55f08
227dd22c
f8b5e683
006ec1dc
0a4b4dca
46f7e723
688834da
195a82be
09353ef5
ae556a9b
dfd020c0
dab3f375
a040fd95
362578be
b89f76f3
4f56e2d7
8d956d6d
da5b51b1
c35380c2
0ca5e883
c2ca703b
71349d9a
b31afd5c
df546570
ddbc1ffb
062108d8
a9cc751e
f2cf3620
ce26f619
f9023564
6c035276
ba80e52b
2a94ee0a
c206b4d4
110417e0
86f58e99
04417896
c3a3bb05
52696a4b
c86f8696
41663f19
de967c5f
19cbd008
af8d0fa0
b71bff1f
76b0fc28
5c217108
b2266489
50f26e3a
a1ebc35d
27d0e227
89dfbb5e
11d89e7c
2c2d4b39
1731978c
ac711b1d
b5aab8e1
2177af20
c864fb11
dacdbf10
28061803
bf52cc2e
bd5ca575
41520b28
4bf4ea9f
2d3669bf
a38e4e59
24212ee0
55d0f8eb
b3772a14
b71ac502
8c5018c9
ec0b60b7
0d0b28f3
9ee8db6b
792fb90a
6e9f8946
c151caac
96629a92
dc847916
9c898d4f
7ebb8732
13cd7d8a
1ca24a96
393d505e
cac45b1c
e50d7768
d93c8f0b
79c6fc00
b1767b7e
f761ee95
5a7c54f3
43ddbdb6
78a6dfcf
c060be38
af72f5bd
bd0c5fe2
b7ea44cf
8e380c6a
298b4d36
c44b675d
1ae85184
fbc7e004
9e2201af
92571d63
169c337c
5fbfd5f7
36b559d8
fd6c0758
453f41b9
4769f3b6
3b50a17b
8fcca220
da6d748d
b40368ae
cf8632bb
db0eb6b4
be9db76e
63485617
3756bab4
d349b78a
51cddd91
1ec2ab11
1c2eae68
1069f2b6
d3176ecd
ae7488aa
c3fc8dd8
c071bbd3
0c2c7bab
e0012d5d
efc1e10b
3e40ee35
db3bc601
3ed4d8fa
a5530128
b2a5d39e
548fd056
6903ec5e
12c5022f
73809c27
8a6be7d9
400decc8
75612f5e
c9da64ff
fed8decc
c2bbd272
150056b4
699d1140
10dd5442
4bd4e6d3
fa5db4da
f71f8124
3563aa82
6b0864a9
023b1cfa
1a6b54cc
ac591754
b03e8924
87fde976
ec392a33
9785e01e
e77be8ff
e56da4bb
ff5347f3
013aa244
f07b65c7
3d420622
a1b749eb
09ce0ad3
0981cbd5
3e9d3523
631b74d3
30769bd5
c897a622
d436d560
02afa1a7
df64f54f
e0cf5c6a
379003ac
c1e6ec72
0ace79c9
39314ec9
50269ccd
fbe2fcbb
b40e282b
31f0bc19
a4c4be37
dd064be4
9c38fa91
08eeea0f
42ecd2f8
e1bb460d
661f4e0f
31d2eebe
afff7c76
e0b3ada2
ca180ec1
c1ae7790
aae6623a
6c2d6d6c
fea9412b
dcef6ae3
151e7cb9
0e68a983
f811fc89
4da8b3e8
f9fc8e47
c794c521
e1ab649b
7736164f
602b9fc6
e0ea1c66
0b078fd4
2534b599
ad27ebbd
02dde0cd
bacf52e6
175ce2ef
6222fa10
c629728a
8d8cbbdd
8a90f678
cfecdeb4
5dc57c61
fc124bf4
4cb1bde5
e11bf602
2d8387de
65980aff
2c3f4ee2
afee6983
ce6e7103
19fe34f2
73017615
ad798f78
a80962e4
75c89a29
b41e6610
d54be562
1a7c2c58
8cb623f5
2581f0d0
cb4a3569
366f602c
3ebfe41d
e279150e
d2160105
c4410a4f
aa729ad3
b3090cd0
99ec25b9
6a51709e
ffbfa7f4
0e6997c7
265ebe7c
1fb36b71
9190a06f
14c63d95
4786e1a8
1f729690
c0ea348e
843642c1
fcef0267
91e0529b
4f861dee
cac91dee
e431d18e
75a85f45
c7733d68
e5add9de
f4d7e375
bd6d151c
c63d6cee
f234679d
3f3bcfe0
21cd6497
849689b2
772a9d9d
8fe893fe
edf277ac
78be4358
f10ba208
ce8b6b4f
10461ab4
95cd2031
44a56800
5da08e36
c4a0dcbc
b72328f0
52b14292
a29b7ae1
5ba84015
10a94218
d6b1d810
12c3d5bb
f9652781
5a5b76b3
0929f3e3
07ce6d54
bff8220c
9bd2ac00
d7863784
3e3ec100
326e6d27
e3c13d4c
7789009f
4a70c68a
f503d0cb
b860206a
4780b86c
bf92d1be
07ed9d8b
1c7b8173
f8567323
13d8e14c
7e8a4670
b1703004
528c5324
48b4564b
85c6a31c
2a85c5c3
48ab67d1
302ba4e2
918607c0
20fd51ff
eeb2d6be
f6c7ce03
2add80e5
e73f6ba3
fc4e3f6b
df0d9e66
7d646e20
b199ed7d
6ca101bd
b3e7f8af
9c6962a5
4625202a
ba216fdb
4d14770a
3a72b0de
105cbb0e
bad7135e
e526ce14
ca666971
4462a039
079ad86f
e5638519
6eda2a9e
11c4215d
f6324120
4c7e7036
c82a71e0
bef36ffc
85bac249
669151d5
ae4e57d3
e7ff2457
06bd90e1
e4f5d03b
6c3a7554
e4a70527
cff96aef
ec13fc20
dea16688
34de625b
d7d0f9d8
cda626ab
313640b3
f5e647fb
dbc70cfc
7c58d18b
e1254e6b
d948e1b8
81cf6d56
30210227
0afc9234
4dfe8d53
7c400d4a
e1493acb
f0dfc759
461a7daf
4912a2a3
61a3913f
71e4184b
638247a1
d72640a1
b0cb5454
0e7dfb1d
171abb03
7ee25ce7
8831a64b
026cfc3f
d686e93c
70fac5ab
b876dc4a
8ed32d66
01e9e26d
9b26745a
cb69302c
07b3a7fc
b7678593
aed1d2b4
3b5ee447
b4f40de3
f01972b5
79204c4f
24a5cebe
bf02961a
37372c8f
1589328c
05365a60
414d5f57
24eec1a0
f21c8dc0
b2d859ba
88491462
99bd549e
20a09863
d6e62b84
3062901a
d479d829
5e13d962
3dc4c827
05f62ea6
c9a29add
14e93f50
f1ec9b14
b8202865
161b0eb8
cb20cb42
56a88570
28c0c5ba
1277a067
c0595f6b
4b03a4bb
e455f99b
efe92f1f
70d02074
fcd1618a
fd5742dd
bc5b7848
4fd206af
2ed1b419
8c866706
2e753225
fac0135e
ab9e93f0
9dd1f97b
413d7e1f
016ec600
cca4ddb2
1742f060
281b64a3
82bc913f
afa14d3b
376fcde4
8b71cdad
cabf1429
54591164
14d3e652
52d90d24
f9480c2f
4d711403
78a4b19c
13e7828f
4962c5d8
04665f74
7adae6b1
6b067be9
3dc6bd07
7cb64b38
e38343f9
8062384e
02a80b6f
c4cf6b90
788c363d
786dd233
22246b7b
20c92d8d
323ce13c
e11530a7
9862ddd7
7d430f09
b2900cf6
7d0ad7de
e93002c7
f1a17091
dce7ddbb
d0f96367
717e40d5
164efb9b
0d7836f7
568947db
deab9fe3
31f46ced
b32259ca
e483613b
aace953e
554784db
a9b2abbe
c3010bf2
6d70b8a0
4bbc9c0f
cee8ae62
9c02d677
81492100
6db310b0
f58ade13
b40d9565
cf7df99c
dc22a634
f19b89a8
efb60647
cdde1e71
c4a5f227
8f06f8f2
3685807e
ec6cb759
dd478bf6
ac9c02cb
7080ce6d
3cff3b90
04c197e9
7bfba723
1af8cd7c
3f806982
036e0101
a4f13701
7d6679df
6f038aec
1e5cb377
b66af4dc
50acedce
041430ed
da1b12a1
8c4a3e51
bcca2d0b
77baa0a5
7596ecde
27851f3f
2a01f190
494ce330
54d96972
daa8d458
ab8e7537
03be2350
b4c7b178
fd16f583
5ae34f8a
ed96ad41
d5c0685d
51950f9a
8603be84
74f70781
cee056c4
1862a918
296bcf4f
990552b2
824518c1
59bd2901
970ae330
d7635297
ce7906bd
1bf4ad67
e54483d6
34cbba72
065bcf1c
dc2a988a
a7417c5c
2d737038
bc119546
d38f9cd4
01e1a657
4fd882b9
20459364
930ce3f1
f92e573f
16f29ad8
1f7d6607
0091598c
09abcc3c
114ee212
de496db3
e5fa8a48
c282edd9
84ba357b
66ddb5b6
1c068faa
0049daec
f53b9354
bd6296e0
39f42a80
b4d64257
468fa471
2d6b3845
cb2ccfcc
bed10a91
8c09fcd9
adb01ab5
f902f159
bb1ebb4f
3fb4aa94
d06c8084
ec2f23cf
1fd08721
a798d885
a2981273
87a6f581
a636be38
94cbecd0
1226b21c
8d697c02
d2053ccb
cc83ddfd
3bf0b073
2c856f64
3c5de965
c675bbaf
8fe78bb4
47bf9670
6bc9f1d9
8e320c39
e1299b9d
19362501
bb1af8c4
0c7bef9a
737babf0
e9c6c16a
45e4b8b8
fd29e216
7ac62c8a
07ab64d2
8361116a
31bfb3b7
a639bb32
e7240406
ff656e01
9b3ea34f
9cd31baa
6a4ab34d
37584771
c20ce244
ad282ef7
6a732ceb
a1f0f6d7
b35e3ac8
faa42e35
337e56c7
37c63016
ed11abd0
6d9f3b68
90f3e4cf
b1280d3f
3b3d0498
c69bda61
6da48b38
ed6d22dd
199c98dc
aafd2236
fbc18a06
05adcafd
dda39a64
8f6a8ebd
078034bb
4a8461d8
8c6f4fd7
c12cd479
394e04a3
59d40f1c
81c6eba7
c01e15d4
7dc89b61
7b85a0ad
458b86c9
53dd891e
cb49755f
a0779cca
124ecfaa
14b4da63
49f5995f
ae787bb3
29e8d17c
93a9b7bc
fca03a14
ceb0f1cf
634b4097
5d5b6f66
1f8e7a52
3c6038b6
8474e218
b2d92102
4da53811
8216be7c
9cc99072
0ab34958
5d5f389d
c2b214d0
f9739dee
e05598de
de6c1f1e
cfb27993
91a06b44
20c7f4ed
5914b3c1
acff86e6
30754562
5e33a410
630b32a1
6456896e
7ad54aa5
b32388ba
e339b833
f07d1d34
19907183
c974ba3b
2b8496ce
4c4aeac0
2bdcd50d
1d513bcb
9f937c0e
2767c6eb
efebbb03
e4a280dc
86caaeb1
8a35571f
4c165bd8
aa905ec7
cc22a70a
5fe4bb37
bb9f40aa
c5eea250
0c36242a
e6a442c0
63ec28bd
4936dd6e
de505c67
531e16e4
3411bc5e
e8081769
9650ad72
3b38f712
04f20e22
65a45275
dffd7ba5
033c04be
7c668a11
f404e50f
eeba4d1f
b4bb550e
940fd097
00ce39fc
9864f345
f27a6860
fc3b8a44
f9281307
bf680d61
1ab08d50
907b6eda
8ce07de6
ff1b3551
a7d7e7c9
7e7543f7
b3d20f25
2f5a0c62
6b87db3e
a419dd11
28140f18
051059cd
75d35d28
ecd9b1fc
29a983fc
91981b15
88db0265
773a2c21
913bcc8b
653a5790
fa3a805d
cda5fd7c
57a9eeee
59ddf5ad
f2a40925
72141b9e
84d2baca
d3df34dd
a36a2da3
e00d6a38
ee2b121d
c299d037
0b879eb5
0b86fdcb
7c366d9c
d6d8d55f
e9ab90f1
97731862
69e2e53e
4d235e45
ce4b4d1c
91e20c8c
8cb483ff
f047b09b
b8a81d0e
1ee3355e
c33d47fd
2b150cbe
bd7992c8
56311257
c74b100e
2fba695a
06b60b79
04083acd
7da173e2
b12b7513
5d5c315c
f0086791
e44b85f2
def2ad17
e14a392d
0db58425
7689f9d5
7bc4d4fa
b6657e49
9c91a41b
0e87da42
20b41611
fb7234de
13d74073
3c572925
b93cae39
bf247eac
cc90a8e3
2e448e42
d94c54cb
b63d880f
48140251
93c59acd
6953d1e0
c4e6c5de
304247aa
3111b047
d2349917
20a1060f
87d61765
156df331
002671f1
911e10f5
2ae0527a
6ada714d
6c7c8c0d
e147ff57
7710a0c6
5f589a70
f76f9988
1c7c6358
17827475
42589c0e
066002c8
458df75d
64b7b52d
d14be000
3def07ca
129b9dab
e0eb6094
0cf3c9dc
5ad7979a
7bad341d
74c1df10
6ab846cc
3c6e56df
4e2d21e0
da5033c7
6d5fc02a
d3ae99e6
e3b2f22a
5ce399fd
33bb86bc
0fae2e73
c95cd253
9cb63047
c6779b4f
c6a5ca13
85d07c6b
fc481ff4
2f683f1d
ea10ecdb
d4c2272a
2d37a943
d7856554
bdecc33c
c06ada1f
20d65ba4
3f4ba1b7
0e258e42
1463ddaf
e8a3758e
c9934b31
4dc2a694
d5153eea
2c40395b
978f5323
7dbf65d7
851803e5
97d46f7d
0663ea6f
37ca37ba
b62f9653
a6f23d50
3caa6f5f
95b374b3
868aa992
e7aa5f8f
9a171141
44fd8bad
5478e285
68e8a452
a71a7188
21bec593
2737bed6
61fd25c7
493d9e18
42bec9a0
0d626197
de833a60
85bdca59
8b5aacec
79ca0ffe
c1e03428
acdb6e57
1365295e
3f973f2d
3602e5a7
6701cf70
d1322855
e1ba6942
88a3b005
c196ea86
23c54c05
350349f4
e9bd6295
bdbe94cc
48ebc12d
3c4173e5
a1ad8f66
f837e0c5
24090706
09183bcf
f720e43a
7ded6113
a0514b56
77079438
7ea04feb
60227c8f
87059d12
758463e0
e08d74fc
b2025cff
35952954
c0ee1f5a
c41af076
f6cbc07d
5bbd485c
5b1a39ce
68c34331
f5c92ab9
6323b55c
92adfc04
d05cd159
023116ce
632505bc
0df495ab
5532828f
ecbd376b
6dc67b68
87a35ff0
1985e58d
12398dd9
fe2a3c01
51a48e0b
bb1e6a60
181c072c
f01db05d
78b11bfc
c9ceb043
b8a68174
448029d5
8f3c4eb6
474483a6
dda97887
7a8065b7
e75b630f
f0abcf43
d3d53509
47b0c052
b30ae8d0
88c7beac
042f3656
3bf9ff08
1aa197fc
ed578364
38107035
ea0b4cd3
0330d8b3
026e4d02
5606383b
cf8b3be2
3317aaa9
97e1bbda
d27d5c19
cce4efc5
b53feef7
b5348bb2
551dd026
5638093c
569378ef
c1e4bbf0
3371987d
8e40d2c5
f1ff5be4
62bd091f
883c597d
0ed764cb
fbc88ce6
9db4d33a
8f11814b
2453fdf0
37ff3f06
f615b176
c8ad87ac
73a49697
a2886da8
c9962288
43f525a8
34858071
06f27425
004e3c03
eb095e7e
fed4e03e
c9f99ad9
c0d8365e
fd7424a0
55052d1f
822ae638
1bf61c11
c0bd208c
f7ebe2b4
00380fd3
54f7f45f
1b82b86c
e3085b1a
eb9313cc
f1dd2df9
e7c1e71c
64bd94fc
23cd64ae
11b60c9a
e0ecd02a
7ea4c424
64add156
4f387243
25caa95d
6e5604d9
6f93188a
0ae14ee0
95eba5ef
2a9f62d4
1184c99b
d3d4f3a3
0926841d
24c51e07
774235f4
6d02799c
ad577818
c714bcad
c1887148
946ebc45
6a651fa1
4164d71c
052fc458
a05c9040
f707f5b8
ea38d429
7e6853e5
8eb3ae7e
d24144f6
bdf0b3ce
fcc1e554
4c933289
8b1ded3b
8aee3896
c55e6c39
9620b82e
5108a90f
4f36cad6
1f9e85e5
9f7a2826
333f7883
56385254
358abb7b
833b0a23
c9a7bfde
c69ecc31
1a7829ea
eb588a8c
201ec583
fa240b4a
3cc26ca9
66319f37
143ffac2
583f06d1
f031f537
724e7aba
3a78b299
a1c16edd
4e45994c
e6d60fb7
b7c77559
ded5fb11
ab4c59bc
d9954042
163cb78e
022b525f
c481143f
dfecf070
856fd32c
0ae0d431
56045b43
ad9f5256
ad45b455
7c7796ff
2ff7b8f4
af7cc3e4
e65cf01b
589118d6
99e0b73e
39f710fb
425d284b
7b41c77e
188a4355
bb1bee42
c00a65f6
ff27505d
d4075eb2
ba0104a2
b009a790
72af43a5
cd9c4884
35472a67
8ab93770
32c070ea
9ab8c2e1
b29fa005
0fe62fe0
96b2f938
480a03ad
42be83d5
fd3aa502
1a28c217
56f7808d
30302f0c
475c04fa
ace4c1cb
43ec5a7b
250e3a5d
84d45b48
b54c4fec
92275c70
975db0f0
f76ef3db
ba3685f2
d4df723c
7c3b641b
074b0d6a
fa5e4d32
a29af196
8a09fac7
46075ebd
e9b4fc8d
d0978128
6da107b8
ee08b668
c2f6c110
71f5b747
678d28a8
f20d2a6c
759deca0
a356c88b
2cd895a3
c30e0c0e
e07b146b
a6238228
5915ae21
a32483e8
9a921eb2
01baa9a2
7641c3f2
348edd2d
18da1474
ae45bec7
4e61bf1d
7da789fe
0b7c03d0
df0bc228
039037b3
7514aeba
48646e03
2ebe42c5
05148769
ed6a0148
8d72ade8
c68873e4
4a8aeebb
a62e9e21
f8b56296
cf1345ce
1380e261
79505a80
3fb01756
37ee01ba
e88c5248
320c06f7
99543f4e
9655b334
b0ced6e6
b9b3b1b5
dfeed235
6fb6130c
f796ef0c
f5f62a1c
18a82b5c
fb544a7c
f1ceaa91
f248b843
c625b59f
52ac4b77
f415ac56
4e8896a9
dd333512
351001a9
5944a1ae
d097b1d4
bbd5376c
3a33e70a
0c0115d0
607a5c4f
43a055c9
3583a62d
f786fbd7
828de844
31bf6c25
141230d5
ba990697
4c8487aa
a98dc288
7168b166
0aa4586f
4a83e7ed
60cdb6cb
b1a2d909
a8522357
df92faf7
95e73c7b
3e627ef8
8c113102
8aea1948
dd6af307
816e2540
4951c153
27b5c12b
691b03ce
79de3425
9e04c4c2
cb02d5ba
27850c45
fd52a88a
0329221d
10a647eb
5ad1e059
a45d7101
ae9a0ab4
762fc09f
1925b7a2
9ea2e69a
1e4031fb
5541106c
c7ccb265
46abdb12
34265cd4
9c32fe6b
dbd923e4
fa0e90c2
7568a0b5
d49621d7
88512cd3
e75a21a7
9e52b7ff
a18ae45a
28bfdbbd
257ddf1a
186af8a8
bc0b01cd
8d1b9340
dd0b902d
51e83e84
65c3dfee
318ef867
2947dfb4
7294d92d
aa31e98a
29eefddf
11dc2048
6212e288
d96f7813
512b8b57
c671f5ec
2602d8c8
6b497a83
884f3947
f819321d
73f3f952
e398f8ed
33b053a2
3f1fda8d
52175e1b
4af5753b
2c39b81c
a9c0312d
5d3f6fc4
cfd240dc
6478ca45
2e87f030
5c959a3c
b0e3e842
b397169a
32c57645
880897d1
c9141ee1
bdaf3349
bf3853c1
7ab6e25b
cf987268
6a534393
a3886a3f
b875ced4
3ee39028
486544be
6ad6b1a0
8575e60f
bae3c918
1ceda22b
9952e4bb
844eebf0
ae1ee80b
ee2cc08e
f0dcd9ed
bf2c42cb
d4587d34
7e7dece0
bf4e3f4f
4c8b5681
f6dbf8fd
5ee0f8f9
f21aa47e
efb449b1
f7937d3b
c225cff5
ba65d5f1
201b68e2
bac11a8b
a38b8e12
929d86a9
bbbe4035
c69301b6
92f73e46
d763e3d1
463b62e1
cab54e99
b92351a2
2a8bd84e
e544454f
e088c20f
3055af1f
9b7424c5
6ed64da6
e9c3b1e8
55e6bfd9
9bce4976
03532aa9
8574487d
b4fd5ab0
8431de57
6e96ba61
18f53932
4dd800ae
74e78d52
09557a64
30d6efac
6d914f9e
c132aa94
5164c157
8415b120
7d371fd1
0570f9f0
df4a4f39
a380783f
3b1baa7a
a9ed6733
4b13b62e
71d81adc
9b01cac1
cb447ecf
128d44e2
c5774254
92aad1de
e3bc4472
806082fa
9ac4e4cf
8a944352
13874a2e
fd1f9528
2cc80182
7e8fc2a6
9006c8be
2e41b80c
9d297b8c
02a94f25
8f4f68e2
72689515
135182a0
13e85106
203166e1
207b3c2c
f24171d1
885a0a9d
c5defd69
ff66fc87
ada883fb
dab2c799
a8a30437
3107a819
d28dc341
a4b2a115
f4a46077
45517b01
4039734a
587cce8c
5090092f
bcd8766b
c31aa2e2
88f2123d
b7c43f68
26e48ead
5b0d7e4f
2f47c419
0ba05aa2
3fd9f953
dc0fef0c
c64a1938
e0fe1be8
077b184a
d7ad8204
6153b14e
f8a97017
28bc9bd0
5b05b734
583a48ba
fdfcd341
1f3ea5b9
ac46879f
38105e4d
08a607ec
be7a8b1b
6fed643e
6529866a
416c0529
edcc048c
d52af36f
4e2e08c7
ccb8bd8d
efe4edc9
68209868
b0a5769b
94861569
14db922f
d5a044d5
94fd51db
8e03bf60
cf6619df
00620434
8667e74c
bb7ec9ac
db5db4b8
13efaf2e
8adfadc0
44e99c88
b4efd30b
12a49780
ea77e229
7381ffb5
e1cd0967
dfef987d
8f8830db
85108ecd
cda672d3
72b0fe55
7020c11b
e39cf649
169e94bd
4986907d
5f594e40
3f9da3c9
ac5afb2e
e0178e68
67e407f3
1083bab2
591f33dd
d0af559e
e9c7e44a
b9fa05ea
e753ec7e
373074d1
2b0d7d7e
65911ff5
50e97387
3ddd14db
5cbe3a4a
32c82003
aec54ed6
9a82fb9a
10ae05cb
7ce7df23
9964b03b
95a861a2
f21c913a
b41ebf3c
9371f4b9
da10ea33
be456c21
f2480da8
8233181f
bc643633
e2f98f9f
904287f5
d009def1
113ad0fc
9559098e
2a083226
056a84cb
43619012
857ed614
c352f515
097972e0
337aa43c
c2a15683
bb254a85
f0ada23e
0bb74377
5be9c6a7
710f165a
260807c9
38701099
5f7bca3c
adf731bc
0513f60b
bfc09feb
dde90c43
fc509656
3c33826e
2edd8c82
cb0777b4
f0553e49
1c6378f7
b693c623
c51fc0c4
bde6a453
02a56431
845baa49
e9de1828
f6aeb031
30a3d4b3
0d07bddd
30c24289
6b8b6767
3cf7f2f9
841be060
90d3b780
088e77c3
a805dba2
0bc35ba7
ac77e613
509dacdf
e302c5f2
ddce7d39
8f1882ce
2f1344b2
a8b297e7
a5d9c2dc
3a007e5c
e543a393
d37ddcd3
bcecb4eb
eb34ed76
b0c60c89
f12d6c87
e80217c3
