83E5D591
726AA903
71B4A2D8
77B329BB
10B3288D
4E73A071
E22A2779
CD7BAB88
8496DDD9
99818AB4
BB9B5B01
2FA965D3
BD3358DB
F02D55EE
2E6ADB3B
9FBD6546
1CA83D2B
FE43697C
55CCC387
884D2F2E
ACE120A2
6849B84D
E49C0CD0
C2BFE723
AE2786B1
291B8FE7
41DFDD03
CF4CCC81
EC57837D
05A3AD05
B5BB2AB5
0B75B4E9
11D44F83
AFD21FB5
8884A55C
78B6323E
571F7911
46EF9A59
F3A396AB
70038021
E5A81049
6593E73D
6DB90363
198F798D
3AAEFFDE
8E6B73AF
47D318AD
4D9627F1
5612881D
7BB2AB6E
7805D5E4
3D8B1483
A7768FDE
54D3C859
4F58B3DE
6CE300DA
D13FD0DE
EEC5F7A1
B40AA9C3
9754A8A4
1916B5D3
58DBD4AF
7B779A78
3BC76BD2
