010B20C9
F70D2DA6
878E25A0
C16581ED
3B071AE5
028EA4BA
18E4A296
1390F358
DE09C4CF
FDF970CB
CBB6E00B
B5893F1D
6AF68F0C
F3ED9A7B
94D2668E
701FAD07
AAFD6FA0
CF4F9707
1798AE42
8563FF94
F7621FBD
BF443E24
680709A0
B6838254
96D17C21
B35FD8C2
CCA2A54F
2B46FBC0
C5C9A30E
3E834CAB
9B4F2D21
5A4371CE
4B1BA87C
9517615E
EC91FF20
AB02F773
E0C98DB3
7955E4F0
742A103C
801D9974
97023AC3
F5A94493
E6C56A82
8C6836D9
C07C2CC5
265D39B7
23412F25
E78DF98E
EC32CAFD
79F613A1
57648060
30DFC4F4
438F7415
9529F0FA
A1E3DD43
652CF25C
7BB83B10
5D187AEB
11542DD2
2216E669
8D364029
569849E5
F14BF0D6
D0D5D501
