fffffffe
00000001
00000000
00000000
00000000
00000000
00000000
fffffffd
00000000
00000000
00000000
ffffffff
ffffffff
00000002
ffffffff
00000000
ffffffff
00000000
00000001
00000000
00000000
ffffffff
00000000
00000000
00000000
ffffffff
00000000
ffffffff
00000000
00000001
ffffffff
00000001
00000000
00000002
00000000
fffffffd
00000000
00000000
ffffffff
00000003
ffffffff
00000001
ffffffff
ffffffff
00000006
00000002
00000001
00000000
00000000
ffffffff
ffffffff
00000000
00000000
00000002
fffffffd
fffffffd
00000001
00000000
ffffffff
fffffffe
ffffffff
ffffffff
ffffffff
ffffffff
ffffffff
00000002
fffffffd
ffffffff
fffffffd
ffffffff
ffffffff
00000001
00000001
fffffff2
ffffffff
fffffffd
00000001
fffffffe
00000002
fffffffe
fffffffe
00000000
00000000
00000001
00000000
00000002
fffffffb
00000002
00000002
00000000
fffffffe
00000000
00000002
ffffffff
00000001
00000002
00000002
00000002
fffffffd
00000001
ffffffe6
00000001
ffffffff
fffffffe
00000000
fffffffd
00000000
ffffffff
ffffffff
fffffffc
fffffffd
fffffffe
ffffffff
ffffffff
00000001
ffffffff
00000000
00000002
00000002
00000003
ffffffff
fffffff7
fffffff2
00000000
00000000
fffffffc
00000000
ffffffff
fffffff5
00000001
00000000
00000000
00000000
00000018
ffffffff
00000000
ffffffff
0000003b
00000005
00000004
ffffffff
fffffffe
00000002
00000001
00000002
ffffffff
00000000
00000002
00000000
ffffffff
00000000
fffffffd
ffffffff
fffffffe
fffffffb
00000000
fffffffe
00000006
00000000
ffffffff
00000001
00000001
00000001
00000000
ffffffff
00000001
00000000
ffffffff
ffffffff
00000001
00000000
fffffffc
00000000
ffffffff
00000004
00000000
ffffffff
00000001
fffffffd
ffffffff
00000000
00000001
fffffffe
00000001
00000000
ffffffff
fffffffc
fffffffe
00000002
00000000
00000000
00000001
00000002
00000000
00000001
fffffffd
00000000
00000000
ffffffff
00000004
00000000
00000001
fffffffe
ffffffff
00000001
ffffffff
ffffffff
00000001
00000001
00000000
fffffffd
00000000
fffffffe
ffffffff
00000001
00000001
ffffffff
ffffffff
fffffffd
00000002
00000000
ffffffff
00000000
ffffffff
ffffffff
00000002
00000001
00000003
fffffffe
00000000
00000001
00000000
00000002
00000001
ffffffff
00000000
00000002
00000004
ffffffff
00000001
00000002
00000000
fffffff3
fffffffe
00000002
00000000
ffffffff
00000002
fffffff2
00000000
00000000
00000000
ffffffff
fffffffe
fffffffe
ffffffff
00000000
ffffffff
00000006
00000000
ffffffff
00000000
ffffffff
fffffffd
00000000
00000001
ffffffff
ffffffff
00000000
00000002
fffffffd
ffffffff
00000000
fffffffe
ffffffff
ffffffff
ffffffff
00000003
00000000
00000000
00000000
ffffffff
00000001
ffffffff
00000001
00000002
00000000
ffffffff
00000001
fffffffe
00000001
00000000
00000000
fffffffd
00000001
00000000
00000000
ffffffff
00000000
fffffffe
fffffffe
fffffffb
ffffffff
ffffffff
ffffffff
00000001
fffffffd
fffffffb
00000001
00000000
fffffffd
00000000
ffffffff
00000000
ffffffff
00000002
00000003
fffffffc
00000015
fffffffb
00000002
fffffffd
ffffffff
ffffffff
00000001
00000000
fffffffd
00000002
00000000
ffffffff
00000000
00000002
00000003
00000000
ffffffff
fffffffd
00000000
00000000
00000000
00000000
ffffffff
00000000
00000001
00000001
fffffff3
00000000
00000001
00000001
00000000
ffffffff
00000001
00000001
00000000
00000000
00000001
00000002
fffffffb
00000000
fffffffe
00000001
00000001
00000000
ffffffff
00000000
ffffffe6
00000000
fffffffe
00000001
00000000
00000003
ffffffff
00000000
fffffffc
fffffffe
00000000
00000003
00000000
00000001
ffffffff
fffffffe
00000001
00000002
ffffffff
00000002
