020a0407
02000000
06f6fa02
fc0206fd
fa080706
f3fd03f7
02fcfd01
fa00fe01
feff0102
fb0203f9
04fe01ff
fdff04fd
0407040c
fd040200
08fd05fb
050601fd
030006fb
00fe0300
010403fa
fdfc0400
010afdfa
02f8f800
fafaf7fc
00fefe02
02fbfe00
00fc0100
fa03ff05
ff0406ff
fb0102fe
09030100
020604fa
02fafa09
f4070900
07fbfbfc
0303fe0b
07030bf9
0203fe06
0001fefd
02fefc03
ff00fc03
ff000201
00020201
00ff00fe
040000fa
04f80104
fef60103
ff05f801
fefffcfd
0001fef8
02fc0001
faf5fcf6
04fa01fc
05000602
0207feff
fefdff07
0000fcfb
fe030202
0205fbfc
05fbfb03
f8fffdfe
fcf8f5f7
0a0009fe
0002fc02
ff010002
ff00fe07
f7f70703
ff050100
fdfff903
000501fc
04ff0405
fe010306
f9f8fd03
fefe00fc
f903f801
0802fff7
fefdfcfc
fdfefc04
fe010003
01f8fc04
fdfa02fa
f9070dfc
0506fb01
f8f7faf6
f90306ff
020204fa
fd0102fe
fbfcfe00
f9f4f403
08040406
0000fdfc
03ff02ff
000002ff
fbfdfa01
ff000002
08ff0102
0206fffc
0007fc02
fffa04fe
0003ff02
03fe0501
030007fa
fbfefffd
fdfd04ff
fd01ff01
03fa0306
fbf907fa
0bf7fe02
0cfd05ff
02fbfe00
fdfc0602
fa020701
fd020503
08fcf7ff
feff0000
00fe0200
05fffeff
03fa0308
fd06f804
05030301
feffff04
fdf90102
01fb0701
0102fd00
ff02f900
00fffe02
04f903fb
05f90308
f6020cff
ff00f6f9
0803fd06
01f8fb06
01fa09fb
f700faf5
fafe0801
0200fffe
02000300
04fbfe01
03080100
01fe0805
0207fe02
fc08fe0a
fffefbfb
fafffdfc
fefff901
000109fe
f8fc08fc
fdfffbfe
08010005
fbfe0406
06fd0502
f3f9fd04
f80103fb
f8020205
fffb0204
04f6fefc
fffeff01
02030504
05060103
f9fcfafa
02f90102
ff02fe00
fbfe0100
fefb0503
fcfc0300
fc03f509
fc0c0307
02030704
00fe02fd
010aff08
fd03fcfc
f900fc03
fdfcfbfd
fe010204
fc04fcfe
fa0a0707
08fefbfe
08fc0404
03fc01fc
fb00fb03
fcfd01fd
02ff0400
f805fe00
0100f9f8
fefd0303
04020406
f7ff00f3
ff0b0501
07000000
fdff06fc
fe010201
03fdfc02
01f8fefb
030001ff
03ffff01
02070000
fdfd0203
fdfcf900
01fffd04
00fe0001
03fd05fe
040305fc
f8f8f905
02050804
0401ff02
05fd02f8
03f8f901
020308fd
00fe0a00
040405f7
0500fd04
fdfa00f8
07f4f9fd
fe03fb06
010504fb
070600ff
fd01f8ff
fe04f801
02020505
0000fc00
fb00ff00
0402060c
06080801
02ff0701
0604fd01
08f90507
09000603
fbff0300
fc01ff05
0afef8fd
fdfe0405
fffdf505
02040101
03030203
01fc0102
000a0205
05fbfc00
ff0001fe
fc000200
00fa0503
f8ff02fc
ff0af8fc
fa0305fd
fafdfbfd
fffc0206
02fcfaf9
fbf8fd00
ff03fe01
fd04fd00
fcfdfe03
ff05ff00
fcf80102
fff4ff00
fe010005
0002ff02
feffffff
0501fefc
ff09fffa
02000004
0e02ff0a
fdff0502
fb07fe01
0402fefd
fffd00ff
fe07f4ff
0200ff05
00020100
04fd02fd
00ff01fd
0003fefd
03fefe02
020501fa
04ff0203
ff0900fe
04000702
fbf6fc03
060a0afb
04060205
fa02f8f9
0002fefe
f6fefa02
05ff01f7
0101fbfc
0705fafb
fe02fa05
01fe0001
020104ff
00fcf907
ff07fe01
05fff9fc
0101fa02
03fc00ff
fa03fe03
fefefe02
03fdfd03
fffcfe02
02f0fdfb
f8090205
fc0502fc
fb0eff02
fc040301
030203fa
fb06f8ff
0201f600
f7020806
0304fd05
f8ff00fe
fb04f302
01fb0001
0202fbf7
0504fa02
fdfbf900
fe020301
fffbf9fb
f8fbf9fc
01fffffd
05fe00fc
03080103
07fd0007
04ff0707
f501ff08
f2fffef9
04fff802
02f408ff
0bf90100
fbfe0307
fcff0401
ffff02ff
fe00fd02
0600fdf9
fdfffcff
fafc0102
f8010503
00fe0101
fd00f700
ff00fe01
0102fe00
0700fefc
fb080307
ffff0701
08090600
02010003
fffa0602
03ff00fd
fc000bff
02020005
f7fdfffc
fb02fff6
01000501
04fe08fe
faffff02
f900f9f7
0104fe00
01fa0102
07fcff04
f5040508
ff0102ff
03fc0307
fffd0801
06fefd02
03f80304
f5f90108
08ff00fd
0dfa000a
fd050604
fe030100
06f9f6fd
03fa0501
0700f8fc
00fe00f6
0706fd01
fe040703
fbfb00fd
fe04fefe
04030002
fefe01fa
0104fb01
fffffa03
0401fafe
f70a0202
0d0705fd
fe050902
fd03fffe
03f80800
01f9fdfd
0000fdf4
fcfdfafd
04fd03fe
fffb02ff
f70001f6
020201fc
fc0a0303
08fb02ff
01fd01fe
02ff02ff
fb030400
fefd04f7
fdfcf9f5
ff03fd05
fbfbfff8
05fc01fd
f6000907
0907fafc
fffe02fd
fcfd00fe
06020100
fefefef9
fcfc04ff
f90104fa
fc020105
02fefefe
f90003fe
04f4fc05
07f6fe04
04fa0301
fd010a08
f9f80500
00000901
06fdf9f9
03ff0603
fbf909ff
fffffffe
feff0202
040102f5
01fe0107
03fd0302
f5080204
0006f8fb
000400f8
04040201
03fe02fc
fdfffdfe
fdffff03
fd04fff8
09fdf6fd
0105fc02
02fd0002
f6fbfffe
0600ff01
09fafb08
02060103
01f4fd06
faf0f903
06000701
070802fc
fffd00ff
02fa0600
0200fc07
03000300
fb01ff03
0303fbf9
06f70002
fa00fd00
02fb03ff
0202fbff
03fafcfc
070b01fc
faff0304
fbfcfb03
fffd0101
030104fe
020205fd
01fefdff
05fafff9
ff04ffff
02080303
f70bf904
fd000009
ff08f9fc
010200fe
fbfef802
fe0402fe
02fc0402
05010003
030402fd
08fe0b0a
fb06fffa
0208f9fe
00fe0100
020004fe
06fd0103
0a050909
0200fc04
0707fb09
fe0b07fd
fb00fbff
05030204
fdfffc00
00fefffe
00060000
fd06fffe
02050201
f9050001
0402f604
fefc07fe
000200fd
fff8fb01
f4fcf6fb
04020308
020001ff
00fc01fb
fcfffb01
0006feff
fd0002fd
0700fffd
fffa0101
fefffa04
05fb05fc
01020203
fc02fcfd
fc010103
000402ff
0504fb00
03040304
fbfcfdfd
00fcff03
fe060500
08050406
05020809
0afdfd01
ff01ff01
06000008
050a0200
fc020404
fa05f9fa
fefd0502
f9fc02fe
03ff0006
0800fefc
02ff0806
ffff05fe
fc06f9fd
0700f9fc
fefcfef7
f6fdf906
f8fe0903
00fd0203
f709fbf4
f80003fb
fd0006fc
fe06f603
f710f8fe
fb04fffe
00fd0200
00fdfeff
02fe03fa
0605fc02
00030203
fd0000fd
01fb0203
0302ff02
01fd0003
0003fe01
ff05ff04
0405f405
fcfd0901
0afe09fd
01f105f7
03070300
fcfcfdff
f9fdfd04
060000fe
0200f6ff
fb01fe02
010200ff
05fef5fc
03f9fb03
f8fbffff
010507ff
fffffb03
fbfe0503
01020400
fefafafe
fdfbf600
0ef90601
fc01ff08
02fd03ff
fa01f900
f5fbfcfc
0403fe03
0303fe00
f8fa0105
01fffdfd
f8fd06fa
0d07fd02
040200ff
fefe01fa
fbfd04fc
fef401fa
0701ff09
0402f901
fe060409
0101fefe
fdfc0101
ff000100
fbfe0bfe
fd0105fd
fe000500
feff0102
0402fd07
02070507
07ff0205
fafff7fd
fffa05fc
fa0a0402
05fb0dff
fbfefbfc
fe0003fc
fb0305fc
00030503
fefb01fb
0501f803
f9fe0807
fcf6f3fe
04010703
fd00fe00
01010202
fcfffc04
0304ff03
fbfffe02
fd0600ff
010504fe
fb0604fe
ff020108
fefcff01
0102ff01
fcfdfd00
fb04fefc
fc0405fb
02fe00f7
04fffc03
00fffefe
06fd00fc
03000602
00fc0303
fe0500ff
fc050803
fef90206
030905fe
f8ff0602
fdfc04ff
0904fffe
040006ff
fdfcfbfa
040301fe
0204fb01
050403fb
09fdfbfb
fa03fa05
03fffcfb
fffc07ff
f7fb0404
0106fe02
fb000104
060100fc
060802fe
02fdfeff
fcff0502
fe02fc01
05fefd03
fc020105
fe00fb02
fe01fdfd
0101fe06
f6fafd03
01f9feff
fcff04fd
0bf50202
02f80003
fff900fd
fd0400fd
fc0109fa
0005fafc
fffc04f8
fdfc05fb
02fcfcfe
fcfbfa03
02fffb06
030402fc
01fb0105
fe0201ff
0303fa02
f805fe04
fb030309
060400ff
010002fd
fc0103fb
02fe01fd
fa020008
000901f8
f50a0a00
04fef7f7
01fdf900
01f90405
ff03fd00
f8fd07ff
02ff0105
050107fc
030102fe
010804ff
01fe0201
fc07fc02
0403f7fc
03fbfef7
050604fc
080301fb
fa09fc07
fffef9fd
ff00fefe
02fd0900
03020103
f602f903
0afafffd
fb0cf900
0900f9fd
fefdfc06
00020303
fc06fa05
0305f9f8
ff0404fa
00fe02ff
f8fdfc04
fcff03f9
04fffdf9
02fcf9fd
fa0306f6
00000300
0005fb02
fdfdfb00
02080202
04f8f905
fffcfe04
fc0400ff
0701fdff
fefc03fc
f8f90009
0204fefa
0603fff8
fdfdfd04
08fb0502
f5060306
fef70108
fd020303
0407faff
0101f3ff
00fe04ff
fefc0300
00020008
f6fefe03
f70700fe
fb01fe00
05ff0205
040c04fd
03fb03fd
01fd0209
08000503
04fbf600
f806fb05
08fd0cfa
fd05ff03
f9010407
fe05fffd
020405fd
fb090303
03fef9fa
05fe07fb
00ff02fb
05010700
fbff0201
0000fafa
0000ffff
fd0000fc
07fdfffe
ff020000
08010001
030205fe
fbfbfffd
fffefefc
09ff00fd
fe020403
fe0100ff
fb020200
fcfa0102
0600ff01
02070101
f9fffb03
010100fa
fb0003fc
03fdff02
0301fcff
fcfbff02
fb0006fc
03070002
0100ff02
00ff0000
fa020a08
fefdfe01
fcfffbfb
fc07ff03
00fcf8f8
f7fbfef9
fb00fd01
00f80100
02000106
070300ff
fd02fdff
02fd0000
00fd06fe
050100fe
02ff01fb
030300fe
fafefd03
08fc01fc
01fe03f5
fff90106
ff02fd07
fc01fe02
02010603
fdfb0000
ff00ffff
030500fd
00020205
0003ff05
0001fb00
fe0700fd
00fffffd
02020003
fd010101
02f6ff02
020001fe
0303fe00
fffe0601
feff0006
0200fa01
06070003
08fbfefc
fdfc02f9
fe01fcfc
0300ff04
fffe0504
fff702fd
f802fdfd
fc0302fc
f700fcfc
fefdff03
fffdfe01
06040101
fd02fb04
03020007
fbfffffe
01fd0100
ff00f6fc
0405fffd
fd010001
040901fc
fafe00ff
fa0700fd
f903f8ff
0a02fe01
fc010302
fdfa0100
fc010603
06fdffff
02000605
f6fb0103
0001fd03
0103ff00
02000401
fd0001fe
00fdff04
fffe0101
ff0202ff
0201ffff
02fd04fc
fc020307
04010002
ff07fffa
020102fd
ff0a0001
0201fb06
ff00ff00
fefffefe
fe0200fc
ff0103fd
ff00fe00
fc010502
fffefffe
030001fc
02fd00ff
f70004fd
08fc01fe
01020000
06fa00fe
fa0001fe
04ff00fe
0500fe05
050600fe
fffd0302
fd040001
f305f603
04ffff09
fffe00ff
01040200
0000fcfe
fd000000
f6ff00f9
030b0200
03010005
fffffe02
0b010503
04feff01
0201fffc
feffff01
fefc01fb
fdfe02fd
0bfe0606
fb0500fb
fcffff06
010600fe
01010703
fe0d01ff
00ff05fd
fdf400ff
0cfffdfd
fe03ff03
01ff00fb
fffd0103
04fe0bfe
ff0103fb
0801fe03
fe03fffe
fdffffff
f7fe0000
fefb00f6
040a01fb
ff020003
0504ffff
ffff04fa
060401ff
fafe0604
fd0703ff
fd01fe05
fdff0004
ff01fd01
fc030001
fc05fa05
0603fc03
fa010401
ff00000b
fb03fa04
01f3fe07
ff0109ff
fd080001
f60bfbf8
0b07f60b
04010500
fe040005
fc0203fc
fd05ff01
01000201
feff00ff
0100f901
f9fd0000
04020004
0801fefe
04fe0509
fc0701fc
fd00ff03
ff0401fe
fcfd03fe
fd0605fe
03fffc02
fffa02fe
05fffc01
fdfe0005
00fb02ff
fc0304fa
02fffcfe
0a0001ff
fb01ff01
fd040106
0501fefd
fdfe0102
03030209
fdfbff02
f901ff05
fd020004
ff0001fd
ff030000
0102fb04
08fd0006
fcff0001
040a0200
fbfc0209
fb0204fa
fdfe0401
ff010001
feff07fd
fe0600ff
04000302
fcf90102
fffff7fb
fef9fefc
ffff00ff
fdfe0102
0100ff01
02050000
0503fdfe
0600fd08
f800f802
00f602fe
06010201
fc03fdfe
fc0002fe
fd0701ff
0400fffe
03fc0000
fbfd0200
040101ff
01fff8f7
01fd0002
fd01fe01
ff010100
fdfd0501
fcff0102
050004ff
fd03fefe
01000700
00fe00ff
01ff0304
010302fb
07010101
01f90103
00fb01f7
02030602
0200fb01
02070000
02fffb04
05020000
ff000005
fe020100
09fefffe
fffbfffa
0400fa09
05fbff02
f400f8f9
07040108
08fff9f4
fc060008
0902fffe
0403fe00
02ff01fe
00fd0003
f90004ff
fefeff01
01fe00fe
01fb0101
fefe05fb
fa020104
0101f900
fffbff02
03000002
02010001
07fe0606
04fb0303
07fefd03
00fe03fa
fd01fc03
fcf60104
fe000005
fefc01fe
0dfdff08
f9fefffc
ff010106
0401ff06
0200000c
00010001
01010604
fd04fe01
fb0005f7
06040003
f902ff04
0302ff01
fd02fcf9
0503ff04
f90002f6
fd0100fc
fafe0a00
00040204
05fef6fe
010803fe
0502f901
02fb0003
04ff01fd
fe0800fb
f9010001
fd0100ff
04020003
fc070100
f902fdfd
ff00ff03
fdff02ff
020101fe
ffff0400
fe030000
fe0000fd
ff0cfefe
04fff6f8
fbfe00ff
fe00ff01
fcfffffe
0901fd06
02090100
f204fffc
06fefd03
08ff0606
03fe0100
faf9fe04
fc0209fb
fd00faf6
05f901fa
04ff0100
fffd0102
fefffbfb
fff70101
09fffdf9
000b00ff
f6000800
fc02fff9
07030106
0304fd05
03fb0100
f9fc04fc
0200fc00
03030204
f6020305
07fb00ff
fefd02fd
03fd0204
06020204
00fe0004
02040301
fefbfd02
01000604
00fdff02
fe010105
05000005
fd0302ff
0000ff01
f902fa02
fdfe0003
f802fefe
ff090003
fe040906
02f8fd0a
000002ff
fdfbff01
0001fbf8
00f90201
0401fd00
fe050000
04ff00fd
00030000
fbfffd02
00030003
05fd07ff
08fe01ff
0300fefe
03fd0104
00000403
01fa01fc
0401fe03
fd010001
fc0cfafb
05fdf209
040001f9
04fd0002
0202fe03
fcfb00ff
f9fdfff6
fdfe02fd
080106fe
0207ff04
fb00f901
fb03fffe
fa02fd07
07f7ff01
04010002
07ff0001
0700fc01
fd03fffc
ff0001fe
09f702ff
fcff0705
ff060102
f803fef9
02fffeff
04000003
040000ff
fefffd03
fdfd00fc
fa04fe02
ff00ff03
0101fcff
fdfcff04
0800feff
ff010002
f6fff5f8
01f9fffd
09ff01fe
03060104
0004fffe
0503fd05
fbfe0107
06020102
fc0300fe
03faff03
fa00fe03
fd0200ff
0001ff04
000700fe
ffff05fb
02ffff02
fc03f8fb
0506fd01
03ffff00
fff900fe
ff00fb01
fffe0001
040100f9
fe030101
00010202
000c00ff
0601fd03
0207ff00
04ff0300
02fd00fc
02020a0b
00fefe05
040006fe
0000ffff
0001fcfb
fdfeff00
f803f900
09020005
fa0104fd
02fffffb
0200fc00
08000003
fb00fefe
feff00fd
fb000600
000602fc
05fa0505
fdff07fb
00000401
04000003
0400fcfd
ff0200ff
00fffcfd
fd0100fd
01010305
02fafefd
fafeff08
fe0203fe
0bfb0709
f70002f9
fcfeff01
050701fd
feff05fc
0406fffe
fe000605
00fe00fb
fd0006f8
f7fc0002
fcff00f8
02000003
07fe0000
f900fffe
f5010500
02000102
0601ff04
0302fe00
07000606
070001ff
f80303f5
f804fdfd
0603ffff
05f900fb
0100fbff
ffffffff
fb020202
fffe0008
00fefcfc
00000103
fa00ff07
02ff0100
ff03fafa
ff01ff00
0afc07fd
06fc02fe
00020403
fd01fd06
04ff0203
00010300
0100f900
0003ff00
fe04000a
0407fdff
06020004
03fdff03
06fffe00
fc000103
010101ff
ff0bff01
f9000104
04fe02fd
fdfc05ff
020402ff
fc000100
f9030001
0300fdff
fd0500fb
fd0105fe
03040101
fb000209
030100fe
fd01fc07
09fb00fb
fcfff9f9
0202fffd
00fffefa
03010000
0100fe03
080100fe
03fff704
02fc00ff
f8ff050a
fbfc01fc
fe02fbff
00f7fe04
0cfe0202
fb0202ff
00010000
08000002
fc010704
04f90100
fdfffc01
03040100
ff00fa03
02090000
fb000601
ff090201
fa01fbff
03040002
0102f706
fef9ff01
fdfffefd
00040205
fe000202
04f40101
fd03f904
fdfefe03
03fffb01
020601ff
04000102
fffefffd
04fcfe0e
fdf602fc
fffffc09
05000102
000003fc
fdfb0001
0604fffa
0408fd0a
00fdfdfe
030002fc
0902fdfe
02fd0002
03000b04
fbfffe00
03fb0200
ffff01f9
f7fe03fd
fbf80300
fbfffb02
fe0102ff
00ff04fe
000600fe
fe010405
04fcfefe
01fffdfc
00fb00fe
02fffd02
ffff00fa
f9020004
ffffff01
fdff04fb
f90702ff
00fdfffb
01fc0100
fa02fe03
0603ff06
06010002
00f5feff
04fb0006
04ff06ff
0402fe05
02f6fe03
01000afa
fc000006
05020301
ff01fe05
0201fbff
fe050005
01fefefe
fcf50003
08fd0406
fd0602ff
03000801
04000102
0201f908
f900fe05
fd020307
02ffff00
04fffbfe
00050100
020006f8
fbf90102
fe01fb00
02fefe03
03fd0304
fdfb02fc
03010200
01fc0003
00fffdfd
fe040000
07010402
03ff0003
f800f500
05f700fd
0301ff03
fdf900fe
fe010308
f905ff02
f7ff00f7
04ff01fb
04000000
050001fe
040005fb
fefd0303
fb01f903
000600fe
0200fffe
fefe0100
05fe06fd
ff01ff01
0000fd05
01050101
fd00f901
02fffe01
0101fafb
01fdfffe
fffffe05
fefaffff
fffd03ff
ffff0203
0001fb00
02060102
fa0104fd
04fb0003
fa0101f6
01fd0006
ff0006fa
fe080004
0102fc06
00fc0000
fc0207ff
0602fffe
fa03fbf5
02fffe01
fe0207fa
fffefffd
00fe0300
fdff02ff
08ff0206
05f602fe
0001f809
05fb0203
000204fb
fe07ff01
0406f8fa
0003fa08
fd020603
fdfcfffe
0400f8ff
040400ff
fdfd09f9
fc0205fc
01030901
01fdfe00
02010002
0402ffff
0201fe05
04030000
ffff02fc
05f9fffe
fefdfa02
fafb03f9
03fffdfb
020301fd
fb020205
0003feff
04fffc00
fffbfffa
feff0906
fe0c0000
fd040108
f801ffff
f90300ff
06000002
fbfefeff
f70302fe
fb0005fe
02ff0204
0002f8fa
02feffff
fffc00f9
f70502fe
fe01ff00
fa09ff05
fc01f802
03f501fe
f7000002
fd00ff02
fc03faf9
fef6fd02
00050104
000305fc
04f5fbff
01000afe
fdfafafd
0603fdff
fe00fe00
010102fa
03fe01fc
ff020102
06000700
fc0602fe
f6fdfffe
feff0700
02000100
040208fc
00f9f702
fcff0001
00ff0100
fd0303fd
fbfcf7fe
00fd0400
070406fe
fd05f703
ffff0001
0201fffd
01070100
0608fb0a
fc00f800
fcfd0302
f908fa09
08060207
fef6fc00
03fffffe
fe01fa04
fdfa0102
fffa02ff
04ff05ff
fcfd0104
000303fe
ff010103
02fcfd03
0104fefc
fe02fefd
06fbfefe
06fffe08
000404fe
fd0200fe
fc0300fe
ff0305fc
05f5fd01
01fdff01
01fafcfe
00fe05f7
fdf7fffe
fdfdfd08
02ff0404
fffafd03
fffd0606
feff0301
0c010400
ff050008
01fe0405
000005fc
040008fd
f8000104
03000006
07fcfcf8
0200fe01
0401fdff
f901f9ff
02fefa06
050607fe
fb000afe
f903fc07
fefc05ff
fbfd0102
00fd03ff
f8fe03f9
faf9fffe
01fd0001
0405fe01
fdfb0004
f8fc03fc
fa0105fd
05080105
0700fc05
0503fb05
0702f804
0506ff02
07fe06f9
fc0000ff
06fbfeff
040703fc
00030601
fdff0007
ff04fd04
ff000001
0500fdff
00ff0302
02ff0100
fd0303fe
fefe0001
fd01fd07
00f8fdfe
fcfb040b
fe060506
04fcfafe
fff807ff
04020101
04fb01fc
03fc09fb
fffd0204
0207f906
00fbfdff
000005fc
fd0b00fc
fcf8feff
ffff0804
fdfc0001
f9fd0802
03fe0106
fefefefe
fcfafb04
070c0aff
ff06f6f8
fc0804ff
03fe08f9
08f9fd03
0d080503
01fbff02
0800fdff
ff0603fc
05f90004
00000200
fe01ffff
000400ff
f7fd0300
f8fff9fc
fe0a1108
fb07ff05
fc02f5fa
fcfd0001
0a01fdff
03040001
000401fe
00fd06ff
fbfc08f8
fa00fd04
0305ff05
09f509fd
00fcfbfb
01fe0201
fefff706
02fe0300
0804ff00
04fafafe
050302ff
0afcfdff
faf4f803
06fffd02
fef906fc
0201fe00
fd02fd00
08050106
07030501
fefe00fe
fc020201
01fc04fe
05fefd03
01fffd02
fafefefa
fb05fdfd
fffffefa
fbf80200
03090402
fc07ff08
fc00fd07
f4fbf9fe
02fb0b00
05010afe
fff703f7
fc0008fa
fc01fa05
0603fc0c
fe0201ff
05f700fc
0609f803
0003ff01
04fdfafb
fdfdfffa
fe0102fb
fe05fefb
0702fe00
fbfe0605
04ff0001
f90104fe
fc0101fb
ff02fefd
fe0002fe
0403fafc
0a050bfb
f3fb0000
020804f7
010203ff
08f9fdf8
020305fc
f8000201
0104f6fd
fe03fc01
03fa0400
0001f602
000a00fc
00fdfc02
fb06fbff
07f2f8f7
01fa00fc
fc020509
00fefd01
ff00fd02
fd0bf9fe
fdf806fd
fe03fefd
00fe08fc
f8fbfcfc
fffaff04
fffe0306
02fc0501
02f803ff
0201f507
fe0102fe
ff01fe02
fbfdfd09
08040101
00f6fa00
01fffdff
fffdfeff
010100ff
f6080101
f806fe02
f608fefb
fafe0104
fcfd03ff
fffd0a00
ff0801fd
fe00fb07
04fd04fb
05000003
01f80006
fefd0202
070400ff
fffb0003
010001fe
0106ff03
fb01ff05
07050404
fa03ff00
000302fc
05050603
010002fa
07010300
04010002
0b060afa
03f6f7f7
0302fffb
00fb0000
0209fb02
00f90405
ff02fdff
00fefbfc
020001fb
fffafafe
05010307
fe0104fd
f8fe0601
f9faf609
0208f800
f9020604
fdfcfb04
06fffe04
fe0a01fe
000304fc
00ff00fd
f90300fe
02fef900
00fffaff
fdfffefc
f9f9fc05
fd0205f8
040bfc04
0400ff01
0b030501
ffff0300
ff00fdfe
fbf7f4fe
03fbfcfd
0601ff04
00f707f8
02fe00f9
f8010805
01fcf902
fa0101fe
fbff0103
06f7fafb
07fc0301
f7f90005
ff000201
fb030203
fbfc00fe
ff080002
f700f5fe
06fc02f7
00000003
0801f809
fe040203
02060000
03fffafd
f6fcfb04
fffafdf6
0101fdfc
ff0200f9
f804fafe
fef9fdff
fdfef5fc
04040207
f60b0203
0402fa02
fffd01fc
f900fdfa
fafd0005
0805f9fe
fd00fffe
fffd0802
05010302
02000102
03fa01fd
fa050100
fc00f9f7
02fefd04
000303ff
0200fbff
03fcfff9
fe0604fe
0200fdff
fb01ff04
01fefb03
fdf4fbfb
03060003
0800fffd
0602fe02
0201fbfa
faf70302
fbfe02ff
ff0200ff
00030600
000802ff
fc01fc03
fafa0c00
0af90609
03fbf5fc
0a0bfe01
07fe0200
fe0504fa
07030100
fdfefdfa
fdfdfcfb
01fcfdfd
f807fa05
02020200
01fdfafe
fff80200
ff040200
f6ff06fd
f800fd01
0afb00ff
090304f9
feff0404
ff020104
f603ffff
04080608
fc09fc01
00f5ff01
f4fb0600
0600fcff
07fd00fa
09020102
02fefb00
fdfafdff
01ff07fd
f7f706f7
fa030702
fdff07f8
fd0202ff
0100fd01
02010403
fb00fe08
0a00fcf9
ff010705
040206fd
03f302f8
07f9fe00
fdf80001
04fe03ff
00fdfafd
02fffd0a
030202ff
ffff05ff
fe01fd09
000b0300
fcfffaff
05010401
f90202fd
fefffffe
f90408fc
05040107
fcfffc04
fd040a00
0305fef6
fc0402fe
fef8fdfc
00030206
fbfc01fc
04fc02fc
01f80101
f80300fb
fd0bfa06
f9f70604
ff0af9fe
02ff00fb
0005fc00
f9ff02fe
02fe0501
f7fc05f9
fcfef903
ff03fafb
01fc03fd
0500fc01
fdfe08fa
0dfc0405
010109fe
f903fdfd
fb020600
02fbff02
040407fa
030afefc
fe01f904
ff0101ff
03faff00
ff00fefc
fd07fffc
04fffe01
fefeff02
06fe00fe
fe05fdfa
05060b08
fe0604fe
0401fa03
0101ff05
0107f901
00fdfd00
0100fefc
ff03fe03
02040400
fffc02ff
0a040002
04fe0600
fefe0102
fefefffd
010403fd
0a00fdf8
feff0300
fdff0001
fc02fcff
00fdfb06
0700f703
05fe03fd
05fdf307
f9fc01fe
010202ff
0302f9ff
fdfb0005
0206f7ff
f709fe04
f7f6fe08
fbfd04fa
fbff00fc
fc01fcfd
ff000300
0003fc08
05fe0807
05fffd03
04fafd01
00fcfc03
0101fc03
f20903fd
07020107
f9fb0bfa
f8fc00f5
00040203
fe00fd01
03fd0005
ff01fbfe
04fffc03
02fafffd
00000301
fb0106ff
0b010501
05f502fa
fef2f5ff
0000f8fb
0504ffff
02ff07fb
04050108
0afcfef8
0106fdfa
f600fcfc
07f9f8fe
f9fa0308
ff00fffe
fc06ffff
02f90104
010501fa
00fb02fa
02fefdf8
040001ff
01fefc06
f2fb0500
04050500
06ff01fe
04fbf806
0208ff07
0108f800
02f8fbf9
0605fc02
fe04fffb
fdfa08fa
020aff03
fe01fafa
fafdf304
f4fffd05
08fcfffd
0a070107
fcfefb01
04020301
fd0404ff
fe0300fd
0401fdfc
0105fafe
fdfe0204
fcfdfcfc
fbfe02fe
02fffffb
fd0004fe
02fd010a
03f90400
0306fef6
07feff02
fcfbfc0c
000509ff
f9020205
03030109
fafbfffa
fd0100fe
06fdfefe
01fa03fc
f50501fb
050601fe
fbfc0afd
00fc09fe
fdfef301
f906f7fd
02000503
06fbf800
02ff09fb
04fdff00
fdfefc06
070202fb
02fffd08
01030000
fffcfef9
01fe0302
02fffeff
ff07fff6
fcff0700
fc0401ff
07fe0c00
01fffd02
04fdf5fd
0801fcfd
0009faf6
01f8fdfe
030403f9
0106fbfd
00f9ff03
faffff02
fe0509ff
04010004
fffc0101
fa05fffa
030d0d02
f602fcff
0e0104fa
0105f802
fd0bfafe
fff80100
f5fa0402
00000100
01fd0003
00f6fffd
fb0d0002
0206ff02
0af7fc04
fe03fffe
fc000004
010309f9
0105fc04
06fff9f8
fcfffdfc
00040002
f9fffdfb
fa0b0404
00fcfbfb
01060502
f7f4fdfe
0505fb06
03fd0104
fcfffe04
02fd0403
f9fafc00
fafaf706
09fa0201
06090605
0500fe03
060001fe
02fd0706
06fe03fc
fc03fefc
fd00fc04
0504fefe
07ff0405
03050500
fdfffd01
faf708fd
fc08f9fb
fbfefb01
fb010004
fe010104
00000401
03fbff04
07fef801
060000fd
000302fe
07fdf805
fd0303ff
04fefdfe
00fe0500
04fb0401
02fcff04
0201fefa
0100fffd
00ff0301
04ff0103
0306fb03
0500f903
0300fefe
0302fd07
f8fffd00
02fe0503
0501fafd
04000503
01060607
02fcfc02
fe00ff00
ff02fdfe
000005fc
fbfc0202
00f60201
fafffaf5
000100f9
ff000203
fdfd05f7
f3010906
01ff0704
02fd00fb
03fe00fe
01fbfdff
08f9f601
ff07fc08
f9f702fd
04fef9fa
ff0500ff
0b080100
f9fb00fe
00fef9fd
f7fd01ff
fb00f9fb
05fefef9
00fd0502
040204fb
01fe000a
02070601
fa0104fc
080006fd
02f601ff
06fbfdfb
060607f4
020104f9
0201fe03
ff06fe02
03fbfc06
09fb0607
fefb02ff
00010602
f5fdfcfd
fdff0101
01ff0202
000701ff
ff04fbfb
000508f8
fe09ff08
fcfcf701
000503fa
0807fe07
0401ff0f
f9ff0201
02fdff06
010201fd
fb03fa00
0602fdfd
fe0205fb
02fb0502
fb0403ff
ff00fd02
03fb0600
fdfb0501
fe030305
fd00fc01
fb0303fa
fbf8fd00
03fcfb00
fbf703fc
03faff04
03ffff05
fc02fffd
07fefc0a
05fd0104
fd0000fc
fafff8fb
f9fff9f9
f80605fe
fffc03fc
fdfb090d
fefefcfa
03fa0907
ff0a02fd
030402fc
01040a01
f5ff08fc
00fb0603
0801fffd
050505fe
08f8fd06
03fd0202
0607fe02
00030102
00020002
08020709
09f7fef7
fdfdfdfe
010109fe
04ff0406
030603fe
0103f8ff
02fe0301
fffe00ff
fe020300
fdfc0101
0307fbff
01fafcf9
fe03ff01
03fc0609
00050302
fc030100
0201fe00
0001ffff
fe01ff07
0104ff00
000300fe
07fff805
01000bff
00fa03fc
0009fbfd
ff02fe01
00fefc01
f5f80605
00f7fbfd
fefb08ff
03fffc02
ff03f8fc
fd0905fa
0106fffc
fffd0b01
010304fa
03f7f506
fffefd01
0201fe02
0001f604
01fffefd
040501ff
fffefefd
fb03fb02
020004fe
fbfc07f9
0303fdf9
0500fafc
04fc01fc
f8fe02fe
fefe03ff
f807fefe
fe010302
f8fefefd
03f9fefc
0204fefd
00fafa02
01ff0102
04fefe05
0700fefa
03000000
fefe03fa
02fcfdfb
fd02f801
04ff02fe
0502fdff
02fb01fc
03ff02f9
fc070603
01020601
00ff0102
07fcfbfc
fdfdff04
0006fc06
fa00fb08
fff5fdf9
060105fc
fefc0001
0000fe00
03010504
05fffb03
fbf9fff9
fefd05f9
fbff06fd
ff04fd02
06fbf9fd
fdfd0b05
fc08f9f7
ff02f6fb
f5f60300
01ff06f6
ff00fffa
0105fd03
01fd0208
fe0b0303
ff02fefd
0303fd04
0101fffd
ffff0201
f9ff02fe
fd04fe04
fc020204
04ff00f9
02030503
fe00fc00
fdfb00f6
0608fe07
02000105
fffff907
04fb01ff
ffff0607
f803f300
fdfb05fb
fdfe0605
ff010204
fffa0006
0203fefd
f907fe05
fd0304f9
01040003
ff04fe01
fe0507f9
fe0606ff
fe010302
fffe0000
fafcee00
00fdfe03
07fd000a
00fb0403
05fe00f9
01fa00f7
01f9faf9
03fdf802
01fffb01
feff0101
01020004
0101fefe
03fb08ff
00f700fd
07fc0602
03ff05f6
05f904fd
0401fc07
f7feff05
00fdff01
000100ff
0400faff
020504fd
fdfcf904
fc030304
ff02fbff
ff030106
ff00ff07
01fb0600
fefcfffb
01010303
030003ff
f40201fc
00f6fdfa
fdfafef8
fbf90600
09000104
ff010301
03050300
02f802fb
05ff06f7
fcfffafd
fff9fdfc
00030000
030303fd
0102fdfd
fe03fff9
fd01fb01
05fffd00
0201fffe
0004f902
00f90101
f0f90003
05f9fffd
03fffefd
06fd0700
0a0403fe
0307fdfc
02fcfd07
ff05f9ff
fd01fd09
0d0800f4
0c080008
02030403
02010a01
fdff0602
f900fc00
01fdfdff
02040402
00ff02fb
fb04f4fe
fdfefefe
0704fefd
ff00fa03
fe02fafe
fffeff00
03fd0405
fdfbff02
0100fc06
fefd0301
0404faf7
030400f9
0300fefc
ff01fc03
fb050005
fdfd0700
020501fe
04fff901
02fd00fe
01fc0008
fdfaf5ff
02fcfffe
0505fbfd
fffffdf9
fd01feff
01fffeff
fcfc02fe
02040204
0303fdfa
ff03fe02
08fdfc02
fff80702
00fe0504
00fefdfb
fc000700
fefdf1ff
fe04fffe
ff040400
f60302ff
fffc09ff
fd000001
0001fb00
fd02ff00
00ff0000
fa0a0802
06f805fe
fbfdfe04
fdf80104
0605fe02
fdfdff00
08fbff07
ff0afe03
0100fe03
fffcfdfe
fffd0003
ff00fc06
f80304fc
00010202
ff0106fc
fe05fd03
fa06f800
02fd0803
0502faff
ff05fc02
f7010105
02fef400
0006f9fd
fd04fc08
05fdfe02
00050302
030502fa
01030803
0401fa02
010a0201
fefe00fe
00ff03ff
0504fdfb
00fdfc03
05000501
ff000201
fc09f7f8
030903fd
f40203fe
06fc06fb
feff00fb
05090bfa
fd000302
01f70302
0303fd01
01ff01fe
05fafc05
040301fd
fe000503
0109f9fd
fefefc04
010bfafd
fb00fe00
01ff05fa
fbfe0402
fe060006
01fb05f6
0204fd06
f80902fb
fdfb0308
f500fe07
ff0d02fd
02fd0603
fe060007
fefd01fd
0003fb02
ffff00fd
030000fd
fefff8fa
00fe0203
01fffc00
010303fd
0102fdfe
000602ff
02040301
0200ff04
f8f90000
030505fb
01fafd07
f9000004
fdfa0401
fef9fdff
fe03fef6
fafdfcfe
04050202
030308ff
010603fc
fdfd0703
01030801
fe0403ff
0a02f808
00090506
f8fe0404
fe0404ff
0301fffe
fffefeff
00050003
010104ff
fff503fd
fefffbfe
f605fffe
01fd03fa
0003fe01
fd0603fa
ffff0103
00fff901
fffd0401
03fe02fd
02f8fb01
fef903fe
fdfdffff
fb010a04
f8020204
fafb0300
fcfb0000
0005fdfb
fb0206fe
00fffefc
04fc01fe
010303ff
05fd0101
fc09fbff
0102fc09
0104fa07
05f809ff
01fb04fb
04fdf700
01fb0a03
07f90302
fffe0104
00fb00ff
01fb0801
02f9fefc
020102fe
fdfcff05
0100fffd
fa0201fd
02fafdf8
01feffff
030002fe
fe020007
fefa0307
fbfbf8fc
0103fefa
fa03ffff
03050001
fcf80008
04f7ffff
fb010603
0201fffe
fe040403
fe0b0c06
ff02fa00
00060000
00010303
03ff00fd
fe0306fd
05fefe01
0cfa0302
fcff03fd
0907fefd
0101fe02
0dfbfc04
fffe0102
01020101
00fffffe
01fb0008
0afe00f7
05fffcff
02fbfdfe
fa04fb03
ff00f707
030201ff
fb000501
03f70107
04fe09fc
ff020d01
00060103
08ff0104
0101ff05
fefe0001
02040302
05ffffff
ff0403ff
03fffdf9
fcfdfd01
f9fb0b01
ff010201
f8000506
0203fc03
ff05fe03
0401fe00
01feffff
fcfdfaff
0202f904
01010000
0000fd00
04feffff
fdfffefb
02fd08f7
080500fd
fffcf4f9
020103fc
02fbffff
f60101ff
05fafdfa
fe0703fb
020102f8
02fe01ff
ff01fcfe
00fc0402
040400fe
f80003fe
ffff0304
feff0606
010101fe
fe010802
030900fe
01fc03fb
fefe0afc
ffff03ff
01fefeff
fe0301fc
fffc0005
ffffff00
0006fe01
fb08f805
0006fffc
fdf60002
ff070607
06fff9fd
0300f8fa
03fe0103
0001feff
0301feff
01fefa00
fdfa02ff
04f908fe
0207f503
fdf80302
fafffc01
00000300
f7fa05fb
fffb08fd
fbff0bfa
00fdff05
010502fc
fbfdfb05
070401ff
01fef702
010d02fe
040205ff
03000006
fe03fd01
00fb080a
fffe0008
0202fafe
fd09fd04
090afefa
fafef506
000200fe
00010002
02030100
01020501
fffd0502
fe010003
0004fffe
00fcf8ff
020402f8
0105f9f9
040202f9
ff0003fb
0104fc03
0002feff
f60002f4
0300f8ff
fcf405fd
feff0005
fafbfc0d
f9fc01ff
fd04fdfb
fd000000
f40205fc
01f604ff
09fd0a05
04100504
fe02fd01
0201fcfd
070a0a03
02fafe08
fbfcfc03
01020303
04f705f5
040605ff
fa00f701
00fb01f5
05fbfb03
fd010100
fafe01fe
02f9f602
fdfefffd
fd04f7ff
0409fc03
02f9fdfd
fefcfffd
fffe0005
fbfafbfd
000601fa
fefaff06
fd020901
08fa03ff
01fe01fe
07010303
fffd02fd
05030502
fd02fd00
fb0a0500
00f80405
fd01fcfc
ff000300
0501fbfa
fbfc0101
ff0809f7
00fcff01
03020204
01020301
fb05fd01
fe0208fd
0303ffff
fff9fbfe
04000101
fcf5fc05
0501f805
030700fe
0101ffff
00050001
030202ff
ff020203
02fe0304
fe03ff07
05fe0201
01fef901
00fb0001
00fc03fe
0102fc01
fc000402
0009fd05
03020005
f807f6fd
0201f605
fefa08fc
010202ff
fffe0401
00f50602
01050202
01faf900
040707fe
01080106
00fd01fd
fe0003ff
06040606
fd02fe02
060100ff
03fd0200
0701f602
0005ff02
fafc0100
06f90104
fd000201
0103fc04
ff020401
02ff04ff
faf8ff02
0103fef9
00fa03fd
fb00fc06
03fbfe0a
fdfcfc06
05f6f307
fcf9fefe
030208ff
ff03f903
fcff0aff
00fcfe01
fefe03fa
feff0603
030003fe
fe010a06
fd000403
0201f705
03060601
fdfb0606
fefdfaf9
0308f7fe
03fffe04
01fe0501
fb0108fd
00f9fafc
0000fdfa
ff050703
0200fb06
0101fbff
fd0afb00
04fb0702
010603fd
04fef7fe
05fd09f5
030efdfd
07fbf802
02fa02fe
f8f9fdf5
01fdfc04
fefb01fa
fffdfffc
07fdfc05
05010601
fdfefe02
00090104
fe03fb00
00fefb09
fd02fe03
fe0106fc
01fcff02
04010203
07fd0300
fe010600
00020503
0200f9ff
0a030206
0203fe03
00040300
02fefb01
090c06f7
0106f702
fe01fffd
fffdfcff
f9050406
020402f9
0b04fe04
fef5f805
ff040202
0105fffb
f703f8fc
fe000501
0007fcf5
01f7fef9
faff0005
01010104
fbfd03f8
00fcf8f6
fe0103fe
00ff0402
0105f501
0100f6fb
05fe04ff
ffff02ff
0402fffa
fefff9fb
00fa02ff
04fffcfa
030300fc
000102fd
09f9fd02
00fe0a03
08fb0afc
04fa0dfd
04f9fa09
00fd06fa
fd070000
01f903ff
000cff02
fefb04fe
010402fe
ff03f800
08010105
fe010505
ff00f8ff
fe00fe02
fefc05ff
01fe0407
fd000308
fff70400
020afffb
01050a03
fafafc04
05fcfefe
02040b00
fefcfef9
0604fd01
01fc04fc
01fa0705
faf9fc06
03fff900
fffefe02
04060105
0100fd08
fcf60004
0005ff04
00fefc01
00fbfefc
f80503f5
fbfcf7ff
0103f902
fefbfefb
0003fe00
030106ff
060703ff
fefbfd02
050204fd
01fef8fa
fffcfb08
fa050703
03f5fc05
00f708fd
fc08f806
fafffbfd
06010703
01020005
0502020b
00060106
f50b05fb
fe0602fc
07f7fe00
020105fb
f7020003
00f90703
080904fe
03fffe03
f904f802
0206fc02
05030108
010500fa
0401fe0a
0103fef6
fdfc06ff
06fbff04
010a04fc
01010001
01fefbfc
0206fff9
05010301
fcfffb00
fa0505f5
fbfcfc0b
fb0204f9
03f901fd
fbf90000
03fb01ff
0100fcfd
01fbff02
04ff0802
000704ff
f802fe03
00feff04
0003fd01
00fd00ff
fcf9fa03
020500fe
feff00fc
050102fb
0204f903
03050203
01fefeff
fb060005
05f6fdfd
0002fbf9
fbf80302
08f903ff
ff00feff
00fd0403
feff0401
fe010000
fbfefeff
ff0000fd
fd040001
03fd00ff
fc00fb00
0401fdfe
00000901
fe0000fc
ff010002
03fffeff
fa0804fc
020200fe
0400010a
0001ff01
02fd0102
02050500
ff0004ff
0501ff00
03feff0c
020800f9
fef9fe01
fbff02fe
fa02fef8
020606fe
fef3fbfe
000506fc
03fefdff
00020002
09fd0003
fc010001
fd0904f9
00f800fa
fafb0505
05fe0301
fcf900ff
fdff03fe
040103ff
f7fbfe02
0002fdfb
01fcfdfc
0706ff05
fffefb00
fc0003fe
04fbfa05
fffc0002
04fd0705
fe020805
04f8fdf3
01fd0400
0601fbfd
0301fefc
ff0201f9
0408fd04
fefefd00
fbfdfd01
fef9fc03
03010202
02fe0100
0600ff04
01fc04ff
010afaff
fb02fc02
f409fd04
fd060300
fcfdfc00
fe01faf8
09fff9fe
f7fefaff
0301fa07
ff06ffff
000203fd
01fa0205
06fefefc
08000700
00ff0803
03fb01ff
fc040002
fdff0000
fa0601fb
09080201
fe020000
ff010202
fcfcfd07
02010204
f701fa05
fdfcfbfa
0a0a0300
060607f8
0004fd03
f7fffc02
0907ff08
fbfc02f7
fc000202
000004f9
0303030b
01fefd03
f9060403
060a0002
00ff02f8
fd01fefc
fcfbf901
00010002
0600fffd
fe020200
01fefcfc
fe050304
fd020001
02010300
07f601f6
f9030003
fb05fd03
01f900fb
f603fffe
ff0304fc
fb09fff8
03fc03fb
010004fb
04ff02fd
05f80301
020502fd
fffa0302
05fefe04
0605f807
02f9fff9
010703fe
0107fb00
fc020bfd
fe02ff04
fe0e0001
fd070206
fcfc0201
fe070305
09fefffc
faff0000
02040705
02f5fb05
01fffffd
fb0201fa
030507f7
fc0202ff
fdfe0100
fefafefd
000610fe
0a05f8fe
fefb00f3
00fc0001
04020200
ff02fe01
fefbfbf8
01fff9fb
020206ff
fbfcfb01
04fffd04
fbfefff9
0802ff03
fc090409
02010403
0200ffff
fc080309
fe0502fc
0407fffd
faf500ff
010205f5
07f906fa
0401fefd
ff000800
02fefe00
fc0204ff
060404f6
03ff0709
fe02fefe
00fc0301
fc0303ff
040401f6
fe000005
fb05ff04
010002fd
01fb01ff
ff080006
f9f800fd
09fafdfd
fc04fdfe
ff060309
010505fe
fffe0503
fbfe0505
fdfbfd00
01f700f6
0001fd01
00fffcfa
0509fc00
00fefe04
000100fe
fd030400
0204fffe
fe02fffc
0602f706
0203fefc
07ff07ff
fb05ff02
0905fa02
fd03fc08
00f90304
fe030000
00fa0101
fb000100
fc000001
060300fe
fbfaf700
fa04fc01
fbfa0402
030300fa
fe010200
fefdfffb
02fdfe01
00080005
04f70008
00ff0106
f9f7fe09
fc02ff02
f7fffefd
fc0202fb
0105f9fd
fdfb03fd
03f802fa
020200fd
01fa0102
00fe0103
0401fc02
fe010005
fc010004
05fd03f9
08fafaf5
00f90107
fe050302
02fb01fb
040604f8
fdf801fe
02f8fe04
fb04fbfd
0706fafb
0104fe01
fd040400
04fc0307
0007fe02
01040305
fdfa0304
fe020406
f608fffd
01fefd05
0201fe01
0005fffc
01fc02f7
fcfe00f8
04ff0303
ff030302
fcf804fa
f9ff0005
0006fb00
01fffe03
0b04fb00
f80a04fa
0005fffe
fe020504
fdfd0101
00fc0302
01020602
01050304
f5020002
03fcfd06
050105fc
fdfe0003
fd070206
03fbfcfd
01f6faf7
0006fcfc
0501f8fa
fbfefff7
0804ffff
f90002f9
06000202
fc0901ff
04fe01f6
fbff0201
0200ff01
02000200
02ff0aff
fd040105
0a0300fa
00f7fcfc
fefb0102
02fe0100
01fafe04
00ff0000
0603f8f2
0204fcfd
f903ff00
01fd01fb
fcfafe04
03fafc07
fb0803fd
fcf70107
0a020404
0002f901
00070006
01010100
000103fb
03f509fd
00ff03fd
f902f7fe
06fd0105
07fd03fe
f903fb0b
fdfeff03
fffeff01
fb03f902
f5f7fe01
08050000
0407fd0b
0101fffe
05fb0104
fffe0302
09fc03f7
fc0501fd
f5fb0303
03ff0000
fefefa01
fe0001fc
04f70405
f90000fe
030504fd
fdfafb05
ffff0309
080406fd
fdff03fc
fc0300fa
0904ff00
fb02fbfe
03f901ff
0309ffff
0801fdff
fafdfb08
fff9fe00
060701f9
0501fcfd
0104ffff
01fdfd09
fc070006
01fd02fd
fffefe04
00040902
ff0601fd
0403fdfb
0005fcfe
f803fd01
00f900f7
08fcfb03
fd0200fc
f800ff02
0207ff02
00030206
0000fe05
ff000603
0901f500
ff03fff9
f904fbfd
0100fb06
fd03fc08
0205fb03
00fa03fe
f6070705
0401fe08
fd01fffe
01020101
f6fdf902
00f6fd01
fc0400fe
0706fdf8
01faff00
0201fe01
00fcfe01
fa01ff0a
07fffc04
fdff01ff
feff0600
0001fb0b
060500fd
fd0200fe
ff04fdfc
0306fb02
05fc07fd
fcfe0001
08fcfbff
0afd0405
fd0603fe
010502ff
0302fffd
f8f7fc01
f907fffb
f8f6fe00
fb0704f9
06fbfdfe
0105f805
fefc0106
010206fd
0202fe01
06ffffff
0804fffa
fefc01fb
ff03ff0d
0802ff02
fd05fdfe
f90603fc
03fafd0a
0003ff05
0204fe04
fe0305fd
f9ff01ff
00fcf9ff
05fefefe
fdf902fb
0003fe02
040b0003
fafd0101
04fbfe06
00f7fffe
ffff0002
070405ff
ff050101
02f7fefb
fd05fdfe
01fffc00
00fe04fb
0400fcf8
f7fc0402
fd04fef8
fe000203
0200fefd
030202fc
03fafffe
04f80303
0204fcff
0200fcfe
fb020604
07fd0005
ff010005
07090b01
02fe0400
fa000700
fdfcfe02
fe02ff00
ff06ff06
0801fc01
f9fe0006
06fcf705
f6090608
fb03fe00
000105ff
0105fbfe
00040101
fffeff01
f801fc03
fbfc01fc
ffff01fb
fdf4fc02
070100fe
01f9fcff
010601fd
04020600
0608030d
09fafefa
0206fe07
03fdfdfd
fd04fcfe
fcf8fbf6
0204f9fb
02020b03
fe02fafe
f80600fb
03ff0202
fe09fff7
fbfdfffe
0501f8ff
fffcfffe
04fffb0a
f902ff08
fe00fe06
fdfefa02
fd030805
090406ff
060202fb
02fd05fa
fcfefafd
fd03fe00
020703fd
fc040007
00040302
02f6fdfa
fefa0801
fffd0008
00fd01ff
fbfcfdfc
fefefff8
0300fd04
fd040304
ff0600fa
fc02fb01
fb060405
0003fffe
0202fe00
f9fbfcff
fff9fdff
02020105
04fb00fe
080c03ff
04020202
ff070200
0308f9fb
00fa0200
06ff02ff
fdfafcfe
04fb0401
f6fcf9fb
fbfa01fb
f8fdfd07
ff0402fd
fe0501fc
01ff0303
fd0103ff
fd06ff01
f9030204
03060309
fc040500
010200fd
fff90501
ff010108
06ff00f5
fc0302fd
00fb0803
00ff08ff
fd05fe00
fe030009
06fe0105
fc04ff02
0002fe05
f90600f6
0205f901
ff05fefc
ff0600ff
ff0001ff
fd04fdfe
07fa0002
0902fefe
fbfcff07
fcffffff
03fefefe
f8fff901
fe090404
0605ff02
fe0102fe
01f90101
000102fe
0401fa0c
02fdfe0b
040301fd
010702fd
03f10bfa
02fa0208
fb01fcfb
040c00fc
04fef807
fb090004
fe05fb07
fa0001fd
070908fb
fefd0303
03ff0008
010202ff
02f9f6fe
0507fdf9
0903fa0b
00fd01fe
03fb0001
01080104
0200fafb
0bfc0700
0205fefe
01f702fb
fa000200
fdfcfffe
fd000600
02000200
050afa01
02f9fc01
0200fff9
fef605fd
f801fb06
fc00fef9
0403fef7
060205fc
fe0302ff
fef90201
fffa0800
f900fff7
0301fa01
fafc0602
00fffd00
01fd02f9
f9fffcfe
01fefb08
0800fd00
ffff05ff
fafb01ff
fff7fd06
0001fe02
03ff0101
01000000
fffe0002
01fb0002
05fe02fd
02fa0104
030005f9
f6fb0202
01fa0101
ff02fc09
fdfffefa
f9fe01fc
02ff0004
07fafe07
00f80000
030107ff
fe000100
0405fb06
02fe0000
00fc0303
fff9fcfd
040301fe
0501fffc
03f90207
00f80201
fd030205
040001fc
fdff0302
fefc04ff
080104fd
09fe04f9
f903fc08
ff010103
08000402
fd050100
01fc08ff
0904ff00
01fef805
fe0000fb
0dfa0005
02ff0100
00fbff01
02fffc00
fbf70106
05f70301
090306fc
03fb01fe
01040405
05fd0203
01fcfdfe
0500fffd
03000107
fffbfe00
010704fa
0003fe0d
fcf809fc
04fe000a
f8fd01fc
fdfb02ff
faf505fe
02030303
040706fb
03f90302
04fd0509
09fdfdf7
fffd05fe
02fcfb05
09f901f9
fe0301fd
fe01fefb
0008fefe
fa000302
fe0500fb
060efd00
0701ff03
060004fe
00ff01ff
ff0601fe
0006fff8
0800f9fe
00fd0006
fa0300fb
fdf503fd
fbfe0b01
03030201
f9fcfc08
fffffcff
03fcfd04
06fb00fa
020202f8
01fd0301
00060603
fe03ff0c
050803fb
00fcfbf5
05fff7fa
fb040001
fbf802f8
00030304
fcfbfe06
f905fb06
06fffbfd
fc010507
fffaff03
01fdfd04
fc0608ff
ff00020a
0103f900
0103fdfc
fe08fff7
fffcfe00
f8fb07fc
ff02fd02
fc0cfefd
fe060204
f90202fa
02fd06f8
fe000105
fffefffb
06ff04fd
00020203
fefc0105
ffff0202
07fe00ff
0009fef9
fc04fb03
01030400
03050307
ff040107
02fd03fe
fffeff03
01fd0afb
000400ff
05fff7fd
01f9f9fa
040501ff
ff010300
ff0f080a
fefffffc
00ff0105
01f9fe06
0607f701
fa0807fb
f90b0801
0202fffa
0506fcff
ff00f8fe
01fd00fd
0100ff07
fdfe0003
00000100
fffffe01
00fb0400
010103fd
0104fdff
01f10302
02040003
fdfbfd03
fe03fc00
fdfffc04
0004fbfe
fa0a0008
00f8000a
01f604f9
00030701
fc05fb00
ff010200
070100ff
02fe02fc
0004feff
00fb04fb
ff04ff01
fe04fa01
fe00ff05
00fffd02
00fafb00
02000707
f7fe04fb
01f9fafe
06040001
00fe0203
fff902fd
020504ff
f901fef8
0105f7fe
01f7fd06
01fd00fc
03fd0103
02fe0200
06f803fc
0202f8fe
fa08f904
01fe00fa
01f5f6f8
fe01ff0a
03f60804
000105fe
0707090a
010a0006
fbfeff0e
fe0500fc
010000fd
02fcfe01
07fafffa
fffe0602
fa0100ff
010201fe
02fdfefe
fe060806
010000ff
02010302
fe0100fc
01fefcfa
fe03ff01
fd010201
00fe05fa
0600fe02
02fef8fb
fc04fffc
0200fcf8
fe040df5
00000402
fdf90103
0103fdfe
fffeff03
05ff01ff
fffffd01
09ff0602
ff05fd0c
fdfcfc00
fefb0301
fa010901
0201f901
0204fc01
00040606
fa0904fb
02030d07
0303fafd
fdfffef6
f8fc00ff
0104fa00
fb0002ff
00fa09fd
03fcff04
02fbfcf8
020005fd
000300fc
02f5fd02
020cfa04
030007fe
fd02f608
f60204f5
0000fafe
fdf903ff
ff06fdfd
0200fefe
01ff0100
040506f8
00fb0607
fdfe01ff
ff000301
f4090703
01fe0102
07fd0402
ff00fffa
ff0801ff
ff05f904
fc000102
020707fe
ffff0703
04fe00fd
fd010900
fffbfd03
00fbfcfe
fffcfc01
f6fc00ff
ffff02fa
02fc0206
ff06faff
01fdfffd
02030104
07f7feff
030f05fa
060008fd
020200f8
f90709fb
00fe01fc
040000fd
fcf7f805
fa0f05f9
03fbfa02
fc0404fc
01fbfd0b
02090004
ff01ff08
fe02fc02
f7f8fc03
fafcfcf7
01ff00ff
03ff01fc
fffc00fc
fbfd0406
ff02fd00
fd00fdfd
ff040600
fafdf900
fc0601ff
07ff07f8
01fefd07
fd010004
000000fc
0008fe00
04f80404
0604fbff
000205fe
0bffff06
0307fd04
fe040300
05faff02
0c030001
0001fffd
030108ff
05fff6f7
0102fefa
02ff0300
fffe0801
00ff0800
02f6f9fe
01fa060c
ffff0202
0001ffff
06ff0900
01ff0101
f901fe01
02fbff03
fa0708fb
04fcf5ff
fafc00fd
01fcfd01
00fb0305
ff020402
fa03fd00
01fc0403
0801fd00
fb030401
0400f503
010bf906
010101fd
ff010102
00f7fb02
fdf80c02
01f703f9
02030600
060003ff
fbfe0105
0106fe00
01fdfcff
05fe01fb
00050103
ffff03ff
02fffd02
07fef9fd
0005fcfc
01fdfefc
0302ff06
0501fa01
01040205
fe0500fc
fe040502
0300fb02
fffdfdfa
fbf9fbfe
02fbfcf9
fffdfffd
0202fe0a
fb0500ff
07fe00ff
fa01fc06
0004fcfb
02020201
010304fb
010101fe
02fb05fd
fdfe06ff
fe060004
01f6fd08
ff0bf7fc
f6020303
0402fc01
f6f9fdff
02fefef5
01000907
fdfe0600
fe040006
0000fc00
fd020103
01f90404
000401fd
02fc08ff
fe0301ff
04010101
03fbf6fd
fdf801fc
0300fe02
000002ff
0700ff01
05fefcfe
f9fb0a02
03070802
02fdfdff
02f700f7
fefa0004
00fcfefd
fffe09fe
fdfafe09
fd08ff02
02040202
0302fe00
01090603
ff0502f9
fffd0307
00f907f8
01fbfd00
0203fb03
00f9f9f8
fe01f803
00fbfe00
fbfbfffa
fd06ff00
fffffdfe
02040407
020004ff
04fb05fe
f80a0405
01f302f5
050b0709
ff02fcfe
ff0403f8
0001fe02
f9ffffff
02f9ff02
05040703
ff02fb04
02fd01fa
010200fe
fffe00fa
00fffe04
fbfffafc
fcfd0b01
0000fe00
ff0505f4
fffbfb02
fd020505
fc040302
01fb00fe
fefaff06
fdfdff03
f9fd03f9
0102ff0d
fafaf404
0aff00f5
fc01fdfe
ff01fb0b
f9ffff06
02fcfffe
01ff0404
0202fd00
fefcfbf8
fe07fef6
03010306
fd02fffb
07fbf901
fdfef703
fb0203fe
03080505
f80205fb
04fffb04
0402f8fd
0103fe05
fdfdff03
0300fa03
03fc0100
01000003
06050101
fcfb0105
fdfc0a0b
01fe0208
02fd0001
01000003
01ff04fd
fe01fcfe
0305040a
01fe01f8
0807fe04
00fffe01
02fd0407
ff03fb04
fd02fd00
00fffefc
00f9020c
03fe0d06
fe0306ff
00fa00fb
01fffc01
01fa00fc
0101fdfd
01020301
04fdf5f8
0004fa04
02010009
03ff0102
f8000602
01fefd05
fffeff02
000003fc
0102fe00
f3ff03ff
03fbfbfd
fffa02fe
02fb06fc
00f0f6fc
02020402
0102020a
04fafefb
ff0af802
fb04fdfe
fe030703
0908f501
ff010302
fcfbf4f6
00fafcfb
040502fd
fdfcfd02
ff000700
03fefb00
ff0004fe
01f8ff0b
f601fcfb
fefe0102
0402fffe
01030400
fbff0101
fe02feff
fb0b0a05
02f80008
00020000
010300ff
ff0005fb
00fafbfa
0207fb03
fd00fefb
0703fef8
0109fcf9
fb02fc02
fe020700
f80706f9
020003fc
000401fd
0003ff06
fe0202ff
0104fffe
0004fcfd
fffffe03
06ffff01
fffdfff9
0108f7fc
fdfcfefe
03fd00fe
fefcfcfe
fe040001
01010402
02050200
0102fcfd
fe08f9ff
00fefdff
fafe0803
fefafcfc
fe03ff02
00fff703
05020a09
01ff0406
00000205
ff000103
feffff0a
fefefe04
f7fafd02
0001fafb
0602fb02
fcfbf9f8
fb00fd04
01fdfe00
03ff01fc
fffdfd04
fffd0802
03fa06f7
03ff04fc
06000105
fefe0204
02010302
f6fa0703
01fafcf6
04fe03fa
fffeffff
fefa02fd
fdfe0101
0905fb05
02fefefc
0a030af5
02fd0409
fe01feff
020104fe
08030002
fffbfefc
00fefef5
fe0404ff
f7fc0004
01f9f204
05f4fd0a
0100fffc
0101fe00
fefd05ff
fefb020a
04030200
ff000505
fffefd09
fbf6f8f7
01f6fe07
fafe00fe
f80505fa
03010203
fffdfff7
00ff01f9
ff0104fe
fefefd07
02ff08fa
0804fcfc
01ff03fe
0902f8fa
0002fffc
0202fbfc
ff00fe02
f7fe00fa
0600fc04
ff070708
fefa010a
0304fe00
0106fffe
02fbfefe
00ff0300
04f901fc
fcfe02ff
fb0107fe
0002fcf9
03040203
01010101
010bf7fe
fffb0102
fb00f902
01fdfd03
fcfa0405
0200ff06
fffd01fe
00fafcff
fefe0701
fe03ff05
02f80503
02010104
06fbff03
00fcff07
ff030201
ff0502fb
08f103fb
0009fd03
07fd01f8
01000104
fdfd0804
fff805ff
08fe02fe
0005fefe
04fd02f4
01fd0100
fc05ff03
ff0006fd
01fafd04
02fffbf8
0402fbfb
01040403
f9fa0306
03fefd03
fefcfef7
0102f2fb
fdfd0201
02040103
040803fd
0307fb05
fdfefe07
000704fd
fe0208fe
fff90102
03f5fd0b
0306f703
fef904fe
01040106
0004fefe
fff9fdfe
fd06f8fe
00fd02ff
01020000
fdfd0000
03fcff05
00f8f508
0400fa02
0102fb03
faff03fb
01080204
fff901fd
fe07fa07
0a03fffa
01ff08fd
f8fe01fb
02f700f8
ff03020a
fcfefafb
0500f7f9
ff000008
01fcfefd
030a0102
0305f705
02fbfe04
f903ff02
01fc08fe
04fb0201
fd050303
02040307
00fa07fb
fd0102fe
fffffe01
0001fe00
00f706fd
04f800ff
02fd01f4
fffcfdff
02fcfb0b
09fdfefe
00fe00fd
05fafd04
fbf90300
faf7fc02
0708f9fe
0006fb04
fd0002fd
03fdfb04
02fcfe03
040305f9
01fe0200
0204fd02
02f80302
00080408
00faf9fc
fc01ffff
0301fafe
fd01f9ff
01fb01ff
fc020106
fe000900
01fe04fd
fe0403fd
fe010300
0208ff02
fe010000
01fefc03
030101fc
00010302
03fe0404
01fcfa00
0401fc07
000305f7
04fcf8fc
ff00fbff
fe02fb05
010306fd
07fafa05
01fefdfe
fcfffc03
00fd0202
f5fefc02
ff0600fe
fefaf7fd
01fd04fe
ff0001ff
02ff0005
060001fb
05f7060b
01040501
00fbfdf8
ff0300ff
02fffeff
fbfb0800
fffcfd0b
0209fb06
0107f600
fe00f3fa
fefaffff
0400f904
00050201
0a0401fb
fefbfd01
030401f9
04fff9fb
020001fd
01010503
0405fa05
020408f6
04fd0107
03050bf9
f8f6fd01
000307fe
04030300
00fe06ff
fc02fffa
fefa03fc
fbff0602
0007f8fa
fb0408fd
010208fa
fffa0102
01feff08
fe0205fc
0400ff05
f7fffa02
04fbf9fb
0702f90b
00f900ff
fcfb0b01
fb020001
ff02fdfa
fd040404
01fcfd03
ff040102
fc0304f7
04f80902
00fc0302
fefbfafb
fcfd0104
ff040104
fdff0007
ff000301
fd030000
fe03fafe
07f60001
01fa05f9
fe02fe05
01fe0301
00fbfc01
fd03fbfe
03000006
fc000401
07060c00
02fafd05
05050801
fe0108fd
f208fef9
ff0702ff
0703fd05
fe0208fe
06fefb02
0409fcf6
00fefffa
fefefbf7
06fb0807
020201f8
07f801fc
fffb0201
fcff0302
0203ff01
060406fd
fffe0100
f9060100
fc00020d
fc0104ff
0004f9fb
f905ff07
09030604
0a08fafe
ff04fb00
03000504
02fffd01
000003fc
fd01ff02
00fa0103
fb000302
02050403
0802fe0a
fe08fffd
02f9f8ff
04ff0306
f805fe0b
02fc04ff
fefb0600
fe0200ff
fa0608ff
06ff0104
01070303
ff02fb01
00feffff
f700fd08
03f9fcf9
fdfdfcfb
fe0706fd
06ff0304
fc0704f9
f8ff06fa
fd01fa01
06fd0606
fdfcf706
00fd01ff
0103fe01
fefc00ff
0102ffff
fafffc00
01000105
050301fa
010400fd
010005fc
fd080204
030402fc
fbfd0005
01fcfd01
030103fd
f509fef9
03f5fb00
00050002
fcfc0806
0302fa01
fd01fafe
ff04fafb
0104ffff
ff0105fd
0101fbff
0004fdfd
f802fb03
ff0400fe
02040500
fa020702
fc0403fb
fdfbfa04
00fefffa
000700ff
01fe01ff
fcfa0503
fe0c01fc
fcfe02fe
fbf707fe
07fff9fc
f7fdfd02
020203fd
fc0401fe
fdfb0000
0501fa0b
fffd0303
0500f703
02fc0503
0cfcfffd
05f9fe07
01fafefb
fafff9fc
000703fe
f2fffffb
09fe0500
000202fe
fe02ffff
06040602
fffffdf8
000001ff
01fffbfc
fcfc0100
02fefe07
fdfe0002
fe00fefe
fb02ff02
000101fe
fc03fc01
02020400
fcfbf900
fffbfeff
f7f90305
01f60009
00fefc09
f5040805
fc00fef8
000401fc
0103fafd
fffb0402
ff0101ff
fe0103fd
0afa02fd
fd040609
fbfaff06
fefffffe
05f9fcfd
01fbfaff
faff02ff
0303fd03
000b0aff
fc000bf5
fb02fb01
0701fc04
00fffa03
ff06f600
fe0b02fe
0603fcf8
0103fefa
fc04f6fc
02000001
03fefe00
fb01ff08
0c01fd07
fc05fe01
00f602fd
09ff040d
02fe0100
ff0401ff
02fdf903
ff0102fd
fcfc0204
07fefe07
fc0101fe
02fffe05
fbfafb00
feed0102
0302fbff
03ffff03
02020504
02fbf804
01fb0108
030006fe
f8fcfefc
f40306fd
f4fdfdf6
fe01fb01
0701fffb
040200f9
0302fc01
0702f608
ff0800fc
08fefffd
02fc02fe
0404f7fd
0100fd02
f1fffff7
06fafffe
fe000005
06060400
fdfafb07
03fcfe07
fffd00fd
05f9f5fe
0306fcfe
00000601
02f6ff02
04090506
0202fd01
0501fe08
fbfb02fd
00fdff05
01f806f7
0df703fe
0207ff05
fffc0002
0507f7fb
020500f8
01000200
fefdfcff
040608fd
01010407
07fdff07
fe080703
fffdfefe
04040602
02fc06f7
0202f606
fc01fcf9
fefff7ff
fa00ffff
fefffc02
02fdfc08
fa0004fe
02070102
040302fe
fc0602fd
00fbfd05
010106f7
02ff0003
f703fb04
faf70a06
fbfd0406
00f7fcfc
02fcfd00
fe03fd00
03fb01fe
ff0d06fc
fcff04fd
0104f800
ff00fefb
07fa0403
fdff0106
fefeff00
07fd0100
00fe04ff
fef901fe
0507fffd
fffdfdfb
f5ff0201
0805f707
07feff08
020001fe
02ffffff
fbfbf7fe
0b01ffff
ff090100
02050704
00fff7fe
fc070304
0301ff03
0a04ff04
01040201
0004fe03
02050007
fc00fa05
03fc0504
fb020301
fe050204
fd01fcfd
0b0106fe
05fdfffb
08fd0903
fa0701f8
fc01fff7
fefb0303
01fb03ff
fbfa0805
02f4fc04
01f70407
04fbfdfa
08f704fe
fd06fe03
0bfefafa
0703fe00
03fefd03
ff0200fb
050503fd
0503ff00
04fdfdf3
f806f405
00ff07f7
fffef5ff
07fcfcfe
05f90201
fa02f507
feff0202
faf600ff
0202fe02
00ff0104
04fefe09
02fdfcf7
fd0102fd
fafbf8fa
05fb0103
0209fe07
0104f9f8
f9fe0406
0200f9fe
fefffcfe
000605ff
ffff0204
01040105
03fb0100
07f4fffb
0300f7f8
f9040106
fc08fc01
09f5fd01
fcfdfc04
fd020005
0103fe03
03f8fbfe
0503ff02
0402fe05
fc060700
f8030302
ff00fefe
01fef8fe
faf8020c
f70802fa
02fafb06
07fa0805
fe0208f8
04f70003
0205fefd
f4ffff01
00fa00ff
030207fc
fdfc0507
fefb08fc
0303feff
00050405
fbfcff01
060002fe
01010408
04fd060b
f7f80001
000002fe
fff9fdff
ff0103ff
02ff02ff
04fcfcfb
06fc05fb
020204fd
fefbfd08
fd000503
fd02ff07
fd07fdf9
06fffbf9
f8fd00fa
0105fc06
fb010001
0c0400fc
f80afef4
04f5faff
00fb01fe
08fe00f5
fdf5fff9
fffd03ff
0003fd00
0a02000a
04050602
050aff05
f4fc06f9
070103fb
0bfdfcf7
fd0208fb
fe030cfc
060309fa
f9fa0400
fcff0001
00ff0403
09fd08f8
07040604
0800fdff
06010009
fbf6fafd
06fe0001
fa02000b
f8fcfdfb
0000fcff
0704fef8
0100fcfa
f803fd05
fd010307
fb050603
0b03f805
fbfdfffe
03fdfe0f
f402f509
00fdfeff
fffefdfe
01fdfdff
f70402ff
00f70308
fb0803fb
fe04f9ff
fd04fe00
fe0406f9
ff00fcf8
02030000
fff6fb00
f600fbf5
f8f901ff
f9f9fafd
05f80304
03f70503
fdfffd05
040003fd
fffe0000
ff020201
f80400fb
010101fd
050003fd
06fa0606
f602fefc
0502fcf3
f90207fc
0107fe04
fc020101
f600fc04
f6fef700
02f9fcf9
fdfc0001
01000302
ff02fa01
0801fefd
02fffcfd
03000604
0403fc08
0d06ff03
0007fcfc
02fefc09
0002fd01
0200ffff
00ff0004
ff000303
fbfefdfc
00fdfd0b
00fe00fc
04f90006
f90302ff
fdfef802
fbf8fcf5
fe04f9ff
fefb01fd
f50700fb
fd0501fd
fbfbfa01
0500ff00
02fcf9ff
ff0304fc
02feff03
0402fcfa
00fa00fc
0306fb03
02020703
0104fe04
00fefff7
0201fa00
fffbfbfe
0100fcff
01050703
feff0001
0402ff01
fb0300f9
02020401
0002fe03
07fefc01
0503fafe
05fa0508
080703fa
fa07fd06
f9fbfc00
fd08fff9
0105fffd
02fffb00
fbfd0001
fd040406
f50101fb
07fbf800
fbfffefe
fcfe0304
08ffff00
01040301
fb02fffd
0004fe02
00040609
fffe0304
05fc0105
f90304ff
01ff0404
000602ff
07040301
fffefd06
fa05040a
f9fefe02
01fc01fd
fbf808fc
fa0800fd
0102f9f9
09f6fc08
f50a0600
fd01fcfd
fcfefa00
01030001
03fefd01
0203fdfa
fefff9fd
000706fe
fcff00fd
fffa07f8
ff0bf702
00020201
000bfc0a
fa0307fc
fe04fff9
fe04ffff
0301f603
07040901
01fffcfe
03000500
01fe08fe
fefd0202
04fdf8fd
fefffffd
f6fa0401
08fcf8f9
02fa09fd
fd000102
03fc02fe
fcfafc06
fd000705
fefd06fe
fcfdf8fe
06020a07
fd0201f8
fdfff7fa
f906fdfd
f9060003
0a02fcff
0104fafb
08050006
fb010cfc
080004f9
01fff80a
0205fefd
fe0307fe
04010500
ff03ff02
0602fa04
f707fcf9
08fd0002
0503fc00
fefffdfa
01070301
000100f7
fd0101ff
f8000101
fd000205
02ff07ff
09fb0ef3
0301fe0a
06050101
00feff00
fdff030a
fe0208fb
05020502
fdfafa04
fefdfef9
fe0a04fe
00feff01
0001fdf7
05fbfe06
020609ff
06ff0b00
060606f7
ff0903f6
f8fa0600
fbfcfefb
00fffb06
0400fffb
fefe0904
05f10604
0305f2fb
03ff00fe
01fefeff
f8020501
01000602
fb0000fe
fbfffafe
00ff08fb
00f707ff
04100404
02f8fc00
f8fa01fa
f8fd03fb
f6fdff01
fd04fa00
09000302
0b03f7f6
0105fc00
04ff01ff
0504fbf6
0501fa06
f9f8fefe
0006fcfb
fffffbf9
fa00fb06
09f6f903
0401fe01
fdfefdfe
01000100
04070af8
ff08fc04
fbfbfdf8
fb00f605
08f80203
fa0204fe
04000008
03fc0806
0400f9ff
fdfd01fb
0201feff
fcfffeff
fdf7040b
0afef4fc
02fdf8fb
ef01fefe
0002fc02
ffff08fa
ffff00ff
01010304
0603fd00
fef9050a
02f1fdfd
04fe0301
fe0905fd
fcf9fefd
0605fcfc
fbfdff01
f908f902
04f900fb
0601fbff
03fa04ff
01ff0005
fd040103
07000005
fa010306
f70001ff
fd000907
01020807
02fa0202
01fc0409
01f9f603
0000ff01
00020605
fffa0505
0102f9ff
fe03feff
ff050004
fbfefefa
0104fd04
f9ff0405
fd0300ff
fdfb0300
03fe0001
fffcfc00
0705fefb
06050002
01fd0806
0100fb05
08010a03
06030102
00fb0601
07fc0202
0503f900
fbfbfd02
00030302
03fdffff
fb0203fd
07fffd0b
fffd0104
fb020001
fc0301fe
07060203
fbfdfcfa
fdfc03f7
fafffb08
fffdfe05
000600ff
0b000701
0509fff7
02fb0afa
fb0105f6
fffafffb
f907fdf9
040301fd
fefdfb00
03f90402
0406fbfb
fd0afeff
fbfe03fd
fe00fbfb
fdfc0102
fbfaf5ff
f40002fd
fe02f7fb
0108fd01
0004fa02
080e09ff
f8ff01fc
0b030500
fbff0001
f801fffe
01080700
fc07fcfc
00010409
f7010af8
00fa04fe
fe01fb06
00fe0207
fef90501
fe0a020b
f707fa02
06050204
fffd0105
f9f709f8
fdf8ff07
fc0702fa
fefe0407
020500fc
fefcff03
0afd0b03
fffeff06
fdf60106
05000000
000100fd
fdfcfdf9
03fefcfe
0004fdfc
fe0000fd
05fb08ff
0202fff9
fe06ff01
fcfbfb00
0506fdfe
0903fe03
01fefbff
0303fafc
03fc01fc
01ff0001
f20100fc
fe0cfeff
03fe09fa
fd04ff00
04f9f80b
02fdfa00
ff030303
fbfd010c
fe06fd00
040105fb
fffdfd02
00fa00f9
fe09fd08
fe01fff8
fe010507
ff0501fc
00f90406
0206fe00
010106fc
03ff0202
09fd0403
04feff01
fcff0008
04fd03fa
f8f80b08
080302fd
ff03f901
02050100
0401fc04
02fefe04
01ff03fe
0001ff02
fcfdf9fc
ff050001
fcf90cf7
fc010400
fafaff01
0703ff00
fe020201
01070301
05f9fc03
0204f703
02f9fcfc
07fe0501
0306fe04
01ff03ff
000200ff
040202f6
050201fa
00030700
05fbfffe
faf8fef7
fdfa05fe
0502fdfc
010005fe
f9f5050d
0503ff05
00ff0001
0efdff02
fa010300
08fd00fd
0200ff02
f801fe02
fffdfffd
070607fe
02fefb05
ff060003
00fe0200
fefdfeff
02030102
020301fb
01fc0605
fe04fd00
03060206
fdfa0201
0300fd00
000203fd
00fafffc
00ff06fe
fd00fcff
0000fd05
06fc0902
fd09f707
01fc0400
010000fd
f9fb0300
030403fd
010009ff
ff03f808
0800fffe
00000101
0503fdff
03fc08fe
0208f7fb
08040601
0704fc03
03090402
01fd0301
01fd03fc
01fe0308
fe0101fc
fafb01fb
03010102
03f70e03
fffe0202
01fb01fb
ff0001f7
0200040d
06fefeff
fff70604
fffbfcfd
fefd03fc
08fcffff
05060105
08fa0705
02fb0104
0801fbfb
050200fe
03fdfefe
0305ff03
06fdfbfc
ffffff00
03040302
04ff0607
f5fb0103
f703ff01
fc04fc03
fff90703
fd030609
0201070a
0708030e
09fcf9fe
0108f402
fb0201fe
ff01fffe
00ff03fe
0c02ff00
f402fd02
fdfbfc05
04ff0201
04fefefc
02fe0306
fcfffefc
04060002
feff0002
fffefdfd
ff03f803
0a020bfb
020400fc
000401fc
01010204
fe01ffff
fffb01fa
06fe01ff
0600fefb
020203fe
fffbfbff
01050204
04ff0700
04f60004
0107f902
fdfa0301
02fd0705
06fffe05
fffe04fc
01030102
0005ff01
ff09ffff
fb0603fe
06ffff09
03fcfd01
0a0503f8
050404f5
00fefcfd
070206fb
ff02fbfd
02fdfe01
fb0100f9
f8feff04
0206fe06
fefd02f8
0306fb07
05fff9fe
fc0508fe
00fd0208
02fc0202
0806ff09
03fd0701
fd03fafc
fefb03fe
030100fe
0000fc0a
fa0400ff
05080000
04fdfefb
01fafffc
04050506
fffd0703
f9000b01
000505f8
0002ff02
f802f8fc
000a00fc
fc01fcff
03020205
07f802fa
fefbfdfd
06f70005
fe04fa03
00fffbfd
fb010101
00fe0409
fc01fff9
02050204
0c06fd07
040807fc
0600feef
0509fc03
010008fb
fdfd00fd
fa05fe01
fc010707
02fcfef6
04fc00fd
f9fe05fa
f7fbff06
fd05fbf8
fe02feff
060401fc
01fffcfc
fa0907fe
fa06fe09
fdfcfffd
fffefdfe
0102fc05
f8040303
02f8030a
03080101
05fb04fc
ffff01ff
01fe02fc
0202fc08
fafe03f9
fefc0202
fc05fe04
0100fffd
06fa06ff
fc00fd00
fdfdffff
fa0000ff
fd06fb0c
01040304
00fb00fa
fdf803fa
fc0305f9
fcf90008
0103f905
01fffffe
fffe0002
f904f6ff
fdf9feff
fa04ff08
fff803fe
0302fb02
070707fc
ff020004
06fcfcfe
fbffffff
02fd0203
01feff05
fffbfe00
fef50006
0201fbfc
fe00fa01
01fa0602
0404feff
080608fc
fa02fd01
fc010406
0800fb07
01010202
fefa0405
0008040a
fcff01fd
0dfff805
fd08ffff
fe0404fe
ffffff01
01f7fb04
04fc02fe
fe0201fc
03fe01fb
fbfe03fc
0202ffff
fa01fe02
0afdf7f6
fdfe030a
fefcf906
01fb0204
03020102
01f80202
09f5f9fc
07fbfb00
04070600
000101fd
08fe0e01
00020706
0501fc06
0b06fb02
0206fcfc
fefefc09
fffa0103
00fdfef8
07ff0003
fbfb04ff
fcf70306
fefc0200
00050803
fffc06fd
040100fe
fa0605fc
fc0501fb
02fa0603
fdfe01f6
fd070403
02f90102
f707fef9
03fe02ff
00fd07fd
0606fbfb
fdfd0204
f701fdfb
0405f8fe
f9fc06fe
07fd01f6
fff708fd
02fffe0b
f6fdf501
f909f70a
0500fbfe
0204fa09
f701f2fe
0505fdfa
00f7fdf8
020006ff
feff07f6
03ffff07
fefef9fd
04020001
fb06f701
02f90206
fcfb0002
fd01fefb
fffdfbfb
05ff0201
fcfcfafb
fcfe03fc
01f9f9fe
0403fa01
fcfc08fc
fcfc0102
01010200
00fef903
01fe0af9
fbfc01fd
03fa07fe
04030101
0506fdf8
01070201
fc030803
fefd0500
010305fa
fffd06fb
ff020403
04fbfdff
04fe0003
08050602
0a00000b
04f90702
040b06fc
f9090504
f911fffd
00080104
08fa02f9
0cfb0afe
fdfef606
03fefb06
00fefdfd
f703f6f3
0701f503
f204fff9
fb07fe01
00fbfb01
fc00f8fe
000009fd
070905f7
fb07fc00
02020706
01fd0200
fcf7030a
02f6f7fe
fd050101
08f700fb
fdf804fc
04fe0cf7
0408fcfe
0400f603
010000fe
fffe0100
fb0005fc
040301fe
fe050106
fc030408
fdfe0103
00070402
0602fe03
fbfc0100
06f90002
0006f405
fafafe06
010101fc
0a0601fd
04060709
03fa0201
fb010400
00fb04ff
0101fbfd
00040606
fb00fc03
f5fff405
0a050304
0501f901
0005fdfd
0e08fb04
fefa0afb
02fdfafd
fcf9000a
fff905fe
fb06faf9
fa04fef8
fcff04fc
ff05ff07
050200fd
fd0201fb
f7fc0303
060402f7
0406fc04
fc000801
fd010601
fe010202
0c0402fe
fffb0203
f801fd00
fa02f8fe
05fe03fe
01030001
0304fffe
09000005
00f903fe
f601ff00
06f70505
0bf9010a
02fb04fd
feff04fb
f7fd0001
fd07f800
00fa0000
fd00fe00
0400fdff
010102ff
00ff0600
00030006
03fffefb
fe00fe05
f8fe0000
000606ff
030007f7
06fcfd05
09ff03fc
fe01fafe
fa03fe03
0101fcfb
faff00ff
fe040204
02fcfc03
09010205
0300040b
fb0203f8
f7fdf6fa
060c00fb
0005fe07
fefefc00
ff000601
02070803
fffefefd
02fa0406
01fbf901
03fafff8
03fa0900
03060000
fffd05f9
fd02fa02
fd0102fe
f7090708
06fc0a06
0005fbff
fd0205ff
02030101
02020504
020303fd
02f50902
02f8f9fd
0308fffd
fefe03f9
f905fcff
01fc02fe
fefd0001
060bfc01
000a08f9
0304fb01
0204fffd
fefd01ff
fcfb05fc
01fdfbfc
04f80103
ff050301
01fffbff
f90700fe
fc09fa00
04f705fe
0402f6fe
050cfdfe
fafc0bfd
fb000004
04ff03fd
03fb0100
fc02f70a
f7fff700
ff08f808
02030003
0504fe02
fc0406fc
f805ff00
000508fb
01fefd07
01010005
f1020400
04fe0603
fe0307ff
020401fb
fef7fffe
020002fa
fafa0709
0403f8f9
05fef6ff
03fefe0b
08fd0301
02f901fb
fffb0200
00010df8
fe04fafd
f501ff02
010106fd
0205ff02
fd060001
fc020100
03ff0105
06fd0301
00fff7fd
fcff07ff
04f8fe01
01fc04fd
04fe02ff
02ff04ff
010002fa
020003fa
fd030601
0301fe02
fdfffdfc
0307ff05
fb030207
02000309
fefefafc
0003f800
0105fd02
fafb0007
01fcff02
04010400
fd01f6f6
0209ffff
ff0602f9
01f8faf9
fff5fd00
0501ff0d
fffe0804
fc02fc02
ff01fb07
0000fe01
0502fbfe
040301fd
f8fffdff
f9fc00ff
fc000605
fa02fc03
0100fd03
01fe06fd
f9fdfdfd
00f90500
00fffc04
fe02f9ff
fdfd04f8
04fffefd
f90502fe
fcff0100
ff060005
fffa06fb
fcfc02f8
fffffe04
02fe01fb
fffaf9fd
fc04f908
07fd08f9
fdfbfe00
fbff0408
ff0408f9
fa0205f9
0a06f701
04fbfb02
fe020600
0302f200
fcfbf7fc
ff0504f2
00060503
02fd05f8
fc07fefc
05fefa04
05010101
0600f804
fcf2fdf8
05f5f5f8
fbfffbf9
ff020af8
f704fef9
00fd0300
0807fb04
ff01ff03
02fefff9
0701fb08
fb0102ff
f004fffd
050300fe
f903f7fe
06f50401
02fc0101
0703fd07
fdfc0101
06060400
08fdfdfb
fcfa0507
04f3fefe
0200f9fe
07020502
05fffcfa
00040200
fe030301
fc05f602
fd0b01f9
03fe0304
f8050001
fb000501
f9060804
01ff0003
09070703
fe09ff02
03000104
05fa05f8
0501ff03
fe04fffa
03ff0101
fb030204
0102fcff
ff000000
03ff04ff
09010002
05fefa01
fefd01fd
05fafdfb
fdfc0007
0300060c
fd0001ff
01fa00fc
f8fc0605
0401fcf8
02040004
0002fe01
06fa0503
fb0801f6
05fbf604
00010200
00050305
ff0002fd
02fe0602
04fbfb07
fc0009fe
02060102
03f9ff01
fb000201
0405f9ff
fefffa03
fa01fa08
05fcff04
04f9fcfc
fbfdf500
0101fffe
fe00fd08
02fd02fe
0007fcfd
f900fd03
ff0400fb
020704ff
fefe06fe
03050601
fb01fb03
fd030102
03fdf9f9
0708f8fc
03fefe05
03fefd09
f7000704
0403fbfd
03fefd00
fa020409
0601fcfa
fc0afb03
fe000a02
fe010102
06fdfa01
f805fd00
fafdfdfe
f4050103
0707f801
02f905fd
0203fd01
01fcfe03
0702fd00
06020201
0000f800
010102fc
040203fe
f6030305
fe02fffc
f4000303
00fff9fd
feff00ff
f9feffff
05ff020b
fbfffefe
01fe06fa
03fe00fd
fe060603
00fcf900
fd000203
fa0000fd
fffcfefd
00fb06fd
f9fd0301
0304fdfc
0efc000c
fcf2fe00
090502fc
fa05f8fc
faf8fe01
08f5fafd
fffef9f8
0002fcfc
ff0cfa03
fbf900fa
01f90206
ff09fd00
050706ff
ff050a00
fcf907ff
f7fa03fe
fcfffffc
fdff01fb
0300fc00
f9060701
09fb0408
09fdfe0a
ff0106fd
f8fbff0a
03000001
fffd0404
fa010003
02ff0406
0200ff00
0503fd00
f9010302
010003ff
fe00ff00
ffff0201
06010402
0401fffe
f2fefe05
fa09fafb
fa00fe00
fdfe04fe
fb0000ff
010100fe
070000fd
04fc0bf9
0902fbfe
06feef06
00000000
010000ff
040001ff
02fff408
05000200
ffffffff
f8030001
fdfdfffb
f40007ff
fbf703fc
f9000201
00fd0301
090004ff
fefd0400
ffff0300
0701fcf9
fe0001ff
02ff0102
01000200
050101ff
080000ff
06fef80a
08000200
0100fdf9
0000fe00
02010203
f8000002
ff00ff03
00000506
f903f60c
fd00fc00
fdff03ff
0000ff00
fe0100ff
06ff00fe
ff00fefd
06020003
fdfdf806
feff0100
0300fe02
05000101
00020201
fe00fffc
fcfa0507
0300fe01
00ff0102
090202fe
07fa09f6
03010201
f9ff00fa
fd000100
01fd0000
fb00fe01
00000404
000205ff
06fb0200
f4fefd01
f3fdf803
fe010201
03ff0806
04000100
fd00fff6
fb01fafd
010004ff
f5020502
fef7fe0d
08000102
0101fafd
07000100
03010300
fe00fe01
fffefcfd
ff000100
040001fe
0600ff00
0401fefe
fd000100
02fe02fe
02000000
ff000501
02010101
0700fb06
fd000300
fafefb02
00fffefe
0101fb00
01fefefc
fb00030b
f50005fd
00040fff
04000000
020102fe
01010100
01010101
03000000
fdfe0004
000002ff
fcff0004
ff00fe00
fe000300
fe010301
02fffa05
03fe0000
ff01110b
ff00ffff
f600f9f9
04010100
fe000102
05020000
06fffe05
0800ff01
fbff0010
05020101
fdfdf7fc
06000402
02000007
03010003
0900fffd
fb000000
01fd0102
f9000001
0502fe04
fe00fe02
fd07fff9
02000100
fffe0302
fa00fcfe
fe00fbf8
1200fc01
05fe060a
fe01f703
04030201
f7fd0503
f703f303
08020103
030004f7
0301fafe
04ff15fa
fd00ff00
0001fe05
04000000
fbfffe05
ff010002
00000606
02000102
0101fdff
07010501
000001ff
0700fcff
02fb05fd
f10103ff
f9f9fcfd
f6000300
fd000405
fe000000
010202fe
0000fefe
fa0301fc
0303fa02
0802f4ff
fbff0200
ffffff0b
ff000100
fefcfc04
0100ffff
fbff0005
ff010101
040106fe
03000201
0400fdff
fc00ff01
fcff0505
0500fdfe
000709f0
03000001
fd0001fd
04fcf7fb
0bfd1004
f3ff0600
fafe13fe
fa01fd00
fe0208f6
01010000
ff0003fd
fd000000
ff0002fe
fd0100fe
0100f9f7
fe010001
01000005
01000101
03ff05fb
0600fcfe
fe0100f6
00000000
01000101
07010402
03010a02
f40001ff
f502f2fa
06020201
fcfb0401
fd0002ff
ff00fe01
0100ffff
0401f305
04000000
ff000001
f4fe0bfd
f5030e09
fd00ff00
02fffd06
00000000
00000000
faffffff
05020504
010106ff
08fb07fd
0202ff00
050311f0
0a02f3fa
12fc00f6
000001ff
fdfefdfd
0000fdff
fffe0501
0600fcff
05fef40a
fe000100
fffefd00
fd00fe00
0001ffff
f7020503
02fefcf2
070003ff
0500ff08
08020303
00fbf30b
0201fc00
03fdfa08
fe000100
ff00fe04
0200f6fd
040302f2
fc000101
fdfe0b05
05010100
010202f8
05ff0104
fc041006
fdfe05fc
f409f5f5
f4010402
00faf90b
f102fe02
02fcfa02
fc000101
0600fcfe
ff01ff00
ff0102fc
05000300
0300fdff
00010201
0100ff04
f602fefe
04fbeefb
fffe0003
fa05060c
fc00fe00
fcfe02ff
ff01fe02
0a020201
fcff0204
fe010802
020001fe
fdfefe08
ff01ff00
ff0002fa
fdfefffc
02070803
0200fe00
01010002
070001ff
ff00fff7
fe010002
fc04f1fd
00000100
0201ffff
fb0100ff
040201fb
f2000501
fefcfd08
060004fa
fdfaedfd
01fffffd
0400f504
fa0100ff
ff00fcf8
00000401
01fefffd
fb000100
0202f902
0700fffe
fc000401
0202fb00
0b00fbef
ff000100
0401f805
feff0100
0100fbfb
03000000
0301fd00
00000200
020201fe
f9ff0203
f7fcfc0b
00010100
00ff0404
fd000202
01020504
010003fb
02fd0003
ff00ffff
04fc0bfd
fb000200
fcfc0104
ff00feff
00fefcff
fd00feff
01ff0002
0600fe00
02fa010d
0402fb04
05ff09fd
0b0003fb
f8fefb08
08000000
01040205
01000201
03fd0202
f10102fb
01f703f2
0e010000
fffef902
fe00ffff
fffeff01
fb000000
0400ffff
fd020202
0202fafb
fc010203
fafefa09
0100ff00
01000203
ff000300
01fc00fd
0000fafd
00fafbff
f00102fd
fd00f6fd
03fffcfd
04fff5fd
fd00feff
03fffc01
01010403
04fff904
ef020302
fbff08fc
00000001
02010201
f800fd00
0602fd01
0b00fc00
fefd08fe
fe0101ff
03fd04f3
06000001
fcfcffff
03010000
00020202
fd020504
04fb0405
fd000101
04000406
0300fffe
0301fe06
050100fc
fdfd0401
09010103
04ff08ff
fd000301
03fefe08
fa010500
f6ff0b06
04000400
02020205
fd01faff
fc0116fc
060101ff
fcfefff9
fd01fffd
0701f607
f6ff0500
fdfff903
ffff0100
0802faf9
ff000000
ff020401
f601fffe
fefef4f1
01000100
0100fefe
ff00fe02
fbfd0701
fe0002ff
f6fe02ff
0100fe01
08030cfd
f5fe0505
f607f502
fe000200
fc01fefe
050002ff
0100fc02
fe000100
00ffff03
fb01ff01
0005ff03
f700ff01
0301fe00
fbff0002
f604fa06
0b00fcfe
02fc0a09
00010001
fffffd02
fb000000
fefdfb02
fa01f700
ff04f8f7
fa010102
00000009
fa010101
04ff0106
00fffcfc
000402f7
0c01fc05
09060400
f900fd00
020100ff
f9000500
fcfa000a
05010201
fefc02fe
ff00ff01
feff0200
f80106fc
f5fffe0c
02010600
05fdf5fa
07f7f9f6
f80a04f9
000000fe
08fc07ed
00020205
0102fb00
03000001
fffffd01
090008fe
09ff0805
f90201fd
0401fdf8
0afdfcfb
f90a0af2
fb00ff01
feff02fe
04000200
030301ff
02010101
010000fe
fe00ff01
01010006
0101fefe
f800f504
fa01ff01
02ffff04
05010200
00fef6f1
ed00ffff
000604fd
03000201
0700fc06
09020501
fef8eb06
00000000
00ff01fc
f3fd0b02
f003fe0b
05010202
0601fb04
fd00ffff
00fffb04
fb0106ff
fdfc04fe
fa01ffff
fdfdfe03
03fdff01
0001f8fc
f801fafe
0402feff
07fff800
04fd0cf9
00000102
0402ff01
08000300
01000101
ff01fe03
0001fff7
0000fe00
04000203
f001faff
f8fff9f8
00030503
04fb020c
fe01ff01
020301fe
01000100
fe000002
02000000
010000fa
fc000401
fcfefb03
02010000
fdff03ff
0000ff00
fd000601
010002fe
fafe0105
ff0000ff
0102fe02
01010100
000006fe
0b01fe03
fdfd0808
080001fe
fc02fd02
0401fd00
08fffcfd
09ff0104
040008fe
0000ff00
ff000302
10020001
0dfffc00
f3ff02fa
f7fefcf6
fd010000
f7fe0501
02000001
fa01f3f9
fcff05fe
0102f6fc
fe010101
04fd0011
02010402
0401f703
faff0e01
f7fc0709
0000ff00
fc010003
fb00fd05
fd06fe00
0601fa04
fd060e03
04000100
0302080b
f50005fb
00fd0dfa
0cfe0101
03fb0ef3
fcfffcff
0102f8ff
fc000000
030001ff
f502fe02
06fefc03
020102fe
0103fa06
060002fd
010006fb
0d020201
07faf503
04010001
ff0005fa
02000202
0000fe00
f9ff01fe
fcff0101
ff000400
ffff0506
0600ff00
00030b01
03000000
ff000401
07010002
0303f9fb
fa01fc00
fffe00fd
03000201
fefeff0b
feff0504
00030a0b
02fd03fd
f807f8f8
1300f805
0a00ff0d
0300fdff
02fffffe
fb010303
0200f301
fd000000
ffff01fe
ff000100
03ff0200
f5010302
00fffefe
0300fc05
01fef9fe
fc00feff
feff02fd
ff000101
fffe04fe
f900fd00
0201fcfd
020001ff
fffff800
fe00feff
fcff03ff
06fffaf9
07fd1300
0efef804
0c04f903
0501ffff
06ff08fe
08fff907
0d03f7f6
ff00feff
fafd0201
f7000000
06020201
030000ff
fe010102
00000101
fbfc00fb
0101ff00
fdfd03ff
ffffff00
0501fd02
f8ff0400
f0fefc09
0500ff00
fcfefd01
fffffaff
030200ff
fbff04fe
01fe0a06
f70001fd
fdfdfefb
01000101
feff0103
020201fe
fcfc0704
00010100
02fffbf9
fd000200
fd000001
06000301
fafb04fc
03000000
0102faf5
07fffeff
02fffcfa
050000ff
fe0004ff
01ff01ff
fdfe01fd
02ff01ff
fd01f7fe
09ff02ff
fefffbeb
03000200
0200fdfe
f7000502
01ff00fc
f8000101
00fffdff
00000001
03ff0106
f900feff
02fcfbfd
05ff03ff
01ff0101
f800fe01
00010102
0bfaf7fb
07010105
03fffeff
fd00fcf8
ff000402
070606f8
01000000
00ff0402
fe000000
010004fe
fd000300
ff01050a
ff000000
ffff0103
05ff0300
0000fefa
04fefd01
00031300
04ff00fe
060408ff
0cff0200
070203fe
fb000103
f9f9fcfe
07faf5f6
f90af8f7
fe00fffd
00fff3f6
0eff02ff
00fd060b
f70205fe
fdfdfc09
00000201
feff0306
f8fe0700
fc01fc0b
03010200
fe0004fc
fb00fdff
00fe020a
010701f6
05f8fef3
000000fe
fffffff7
01010104
03000303
00fb00fb
05fbfe03
01040104
020100ff
00ff0000
fb010403
010201ff
faff0700
fdf6fe04
fb0502f3
00070007
fdfffd00
00040003
03030401
000300f7
06fefafc
0409020c
00f7fa11
00000000
ff000001
01ff0001
fe0106fb
00000004
0201fdfb
02f70303
08fe030a
000000f4
010701f7
01fd00f8
f200fef8
00fa0000
f505fa03
fffeff04
04000201
00fd00fe
02ff0302
00010001
030201fa
01070002
fa00030c
00ff00fe
02fffffc
000300fe
04ff0105
00fb0001
0e0501f6
fffb0002
fb0800fe
00000008
fefcf902
00000001
fbff01fd
00fcff02
00ffffff
03000102
01fafefb
0001fffb
fbfe04fb
000200fd
fdfc0000
000000fc
fefefbff
000100fe
ff02fffd
030702f7
fcfd0408
00fd01f9
03010004
01fd0107
fc050105
00070001
fb000400
030802f6
f3f90006
ff01ff01
0708fffd
01ff01ff
01fe0100
00ff0002
080003ff
0006000b
fef60203
02f20304
070c0bf6
00fa0000
fcfffcfe
00020001
fd030005
01fb00ff
0102ff02
ff010000
03ff03f9
00fe00fb
08ffff01
00000003
fe0401fe
00ff00fd
ff010403
01fe00fe
0100fcfe
01fb00fb
f5fffeff
ff01fe01
fbfef90d
fe08fef3
08fdfaff
00f2010f
0e030509
000100ff
0100ffff
010300ff
fefa0202
00fe00fd
fb01fe08
00fc00fe
ff010400
000100fe
fcfffe02
02050000
05fb02fe
fefefff9
fafd03fc
fff800fb
03ff0102
00fc0100
ffff0201
020002fd
00fc0205
00fe0010
f6fcfbf8
01050206
fcfb03f4
00ff00fe
0c0402fa
020801f6
f7fefe02
00020004
fc03fe04
00030002
fcffff02
ff03fffb
fb01fbfe
01000001
040200fe
000400f8
f3fbfafd
010b010a
0506040c
00fc0107
0002f8fa
fcf7fdf9
f40e05fe
02fe02fe
050500fc
010202fa
08fffaf3
01010006
fcfcfeff
00ff0105
fbfc0806
01ff01fa
05fe0401
00ff0000
00ff0002
00fe01f3
03fb03fc
000300fd
f4fbf8f9
020401f9
08050205
00fb0104
00030402
010100f5
07fb00f9
ff06fff9
fdfbff00
0409020f
08f80106
fff9fffd
ff0204fc
01000000
0705fefe
01fc01fa
feff0105
00070000
00ffff01
00000001
01020101
00fe00fb
00ff0401
ff0eff00
f9f5f909
01ff00ff
04fefffb
fef5fc05
f907f7f6
fefdfffb
04070603
00ff01fd
02fffefb
01030004
f9fdfb02
00030000
07040103
02020104
0201fd01
010001ff
fffeff01
00fd00f7
0006fd02
ff02ff03
fcfefc04
000000fe
ff000001
000300fa
faff02ff
ff01fff5
fffbfef7
02fc0202
0800fcfc
000000fd
f7020303
0002ff10
f6fe0209
000000ff
02fc00fc
fdf4fefc
0a080a09
00ff00fd
050000fe
00000000
0000ffff
ff030000
00000102
020101fc
00000305
010c01f5
07fe010c
0309010d
05f1f403
000300ff
fb04fd05
00000002
fe0101fa
0005fff5
f700f801
ff000005
fc02fe03
00000002
03fe03ff
02fb01fb
f6ff00fa
00ff0002
f7ffff07
03fe0200
fcff0004
020201f7
fd01fa01
00fe00fe
050002fc
ff0400f7
00f4f9f2
010300fd
fb010402
000100fd
03fefeff
fffd0006
040505ed
fb0cfef6
05f4060b
01f60200
070a09f7
02f603ff
fb06ff08
ff0000ff
0304ff00
00010101
0500fc02
00fe0005
ff02ff03
01010100
01ff0001
0302010b
f7f8fd0c
fef6ff04
0a09010b
00040000
fe00ff05
010300f8
ff06fe03
fffc00f0
f30403ef
000200fc
f802fd0a
00020105
fd020101
fefffdef
f6f8fd0c
00fd00f6
00fe0101
fffffffd
f5fcff02
0101010d
0afbfd09
000400ff
05fe02fd
01f40103
0101030e
01fc0101
0b040604
0006fff7
09fff704
ff06fefa
fbfffe09
000600fb
0900fa04
01fa00fe
0206fa02
00fd00fe
fefa06f7
00fe00fd
02fe0401
03020204
06f9f903
00fe00f8
02020301
ff01ff05
02040004
01ff00fc
08fafefb
00fd00fe
06ffff0a
fff8ff03
f807fffb
00050003
fcff0203
00fd0000
ff0106ff
0003fffd
00f90307
00040000
0f040401
00f40105
040605fa
ff00fffc
0103fcfc
01fe0004
00ff0002
010c0006
fe000205
010a02f9
f7fbf9fb
0003000b
fbf602f9
fffe00fa
00fc0103
00fe0002
fafd02fb
010500ee
0602f702
0103000c
0c01fff9
00030002
0404fffd
00030003
fe0201ff
02090105
06010310
00fe0100
f90507f6
000100fe
01020203
00fe00fb
060402fb
010700fa
fafbf9f7
00020000
01fb0206
ff03fffa
0706fffd
00fd0001
0002fcfc
010001f9
060202f2
020702fa
03fe00f7
00000008
03fffbfd
00010002
05ff02fa
00fa00fa
0607fe05
000200ee
f902fff4
000300fc
0104fffc
010001ff
07fc01fe
03fb0300
020604fd
00040003
fd010102
0005ffff
07fffb08
010a01fc
0bfb01f8
00060100
fcfbfffc
00fb00fc
f80204fd
00010101
0a0407f6
00fd00f9
02fd0100
00040203
0cfefaf6
01010100
0004ff00
0107010b
0bf90208
01fdff0e
02fe0405
0000ff01
0500fefa
000100ff
fbfc0307
02090103
0bfbfd04
00fd00fe
03fefb03
000301f6
0104f9fd
00fb0001
f7ff03ff
000400fa
f8fffc0c
fdf8fe00
f90a06fa
000200fd
fffe05fb
00fd00fb
00fe02fe
01020001
03fffefa
00fb0106
0b00fe02
01020101
05010202
fff8000d
01ff01ff
01070104
0d03ff0d
010001fc
fcfe00fa
00000003
030100fe
01000107
05f5f6f8
00fc01fd
fb030708
010200fe
020001fd
fe08fefa
f8f902fe
0109010a
060308fd
00040008
fe000302
00f501f8
020703f4
01fa01fe
0003fe01
00000101
01030100
0000010c
0d010407
02ff0107
f4ff03fc
f709f6ff
f8faf608
0004fff6
f2ff0201
02f70200
f80405fa
01fd00f8
01000000
01f900f8
00030505
010601f7
05f70104
fc14fbfd
f6eef30a
00020003
00030002
fffb00fd
0300fd02
01ff01fc
030101ff
01010104
fcfeff03
01060105
f6f500f8
02020106
03fefd00
010201fb
f7fc05f7
ff0200f7
fffc02fc
010200f3
fd01fc06
03f802fb
0b0afb02
00fb0102
0203ff03
fcf2fe00
fd0b0500
01fb01fb
07050202
00fe0102
05000002
01010000
fa01ff02
01fc0100
0002fe00
fe03fe03
faff03fc
00010105
0e01ff0d
ff0b00f4
0500f9f6
000000f9
01fc0302
00fc0007
0aff05fd
01fe0103
fe0004fd
00010001
0600fffd
01050105
0afcf805
04fa03fe
0b0405fc
01070100
02ff04ff
00030105
ff0102ff
00040002
ff00fa03
00010000
fc0504f9
01fb0104
03020005
000300fd
02ff0401
ff010005
fdfffef6
000400ff
fefcfeff
01060103
03ff0001
010301f9
f6fefaf2
00040006
02fcff09
010300fa
fdfefd00
fffafffb
fe08fe02
000000fa
01ff01fd
040002ff
0100050b
fefefff1
f1fbfafc
010101ff
fb000300
000200fc
08fdfef7
fefbfef1
f5f802f3
02fe0100
0201fb04
00fb01fc
080102f9
fef9ffee
fe0e0a01
00ff0000
fdfdfe00
fffd00ff
faff02f3
00040206
1103fef7
000200fa
06fd0302
ff0000ee
f9fe02fe
00f5ff0b
fbf705fd
ff05ff01
03fcfdfd
00ff0002
ff01fe03
0209020f
0103fd03
01fa00f2
f8f80507
0001fff4
faf9fd0b
03040205
0200020c
00fa01fc
0407fe0a
000100fe
fdfd01ff
fe03fff8
f4ff05f2
00fc00f9
01040105
00f901fc
0b0100f6
00010005
ff01ff03
02fb010d
0a03ff07
01020104
fb02ff03
01f801fd
03040303
fffc0000
040d0b0a
fb06fef6
03f90c05
010500fa
fc05ff01
00fd00fe
ff02fe00
02040010
f700010c
01030005
01fc00fc
00ff0001
fe050106
02fb01fc
f80202ff
010501fd
0409000a
fffe00fc
fc02fffa
010200fd
ff0203fe
ff02ff02
04fcfefa
00ff00ff
0201fe01
000000fe
f90403fd
ff06ffff
04fcfd04
fffdfe0e
f3070207
01050102
06fcf803
fff7fffe
f00b0202
00000009
f6fc03f5
00030005
fffe0404
00ff00fb
fcfdfe02
00010007
fb06fe03
010001ff
fffffbff
ff03ff05
0001ff08
fffefffd
f9fe01f8
00ff00ff
f802fb03
ff03000a
00040105
fffbfe0c
01fdfaf5
00f800fa
fafefe0b
00fe0001
0100ff01
020f0203
03fafa05
01020004
0b01fff7
00000000
ffff0200
01ff0102
fd0206fb
00fc0000
040301f7
ff030008
09020005
00010001
fdfdfefd
00fd0003
000300ff
fffffffe
fafe00fc
ff09fe07
fb00fdfc
000100fd
fc020101
00fd01f9
000704f7
01fd0101
06050205
00fd0004
03ffff00
01fe00ff
00030002
0000fffe
03010001
000401fe
04fbff03
fcfefa06
f70af5fd
fffd00ff
08010200
fff500f7
f80007f1
00ff00ff
03010003
00000000
0304ff00
00fd010f
fa020208
00020000
f9fffe02
ffffff02
0300fdfb
fefaff05
040705f5
ff07ff01
f5fcfd0e
ff02fffe
11000004
01f401f9
0b0d06fa
f807f9f9
fef9f50e
ff030000
f7fdfffc
0109fff8
fdf8f9f8
02010101
f2f7030b
01fe0100
00ff0401
fef7fffb
060c0902
00010103
010101fc
fffd00fe
f704ff03
00f9f503
0afcf700
0302f500
f7020000
fe020503
fb020500
0001ff00
05fdfd00
fbfffd01
0306fe01
fcff0200
fe000300
04050704
fc01fe01
f7010a00
0bfd0700
0005fa00
fb060100
ff040400
fe010200
00faf402
f4010300
01fc07fa
fafdfc02
00ff0000
00000000
000601ff
f6fc0a00
0101fc00
ff01f900
fffffa03
07ff0d03
0608fd03
ff07fafe
02fd0000
03fbfd00
0dfefd01
04fbff00
04ff0000
fc0401ff
fcff0200
fe070000
ff00fe00
0205ff00
0507fc01
0109f5ff
04fffc01
0701fd00
ff010000
fd0307ff
f90003ff
fb03fd00
0406f806
0a06fa00
0000fc00
fefbfa00
ff030400
0100fe00
010001ff
00fffeff
fffffbff
fefbff02
01fd04ff
fdfe03ff
ff020100
05010100
05fafbfe
f9010700
fe03ff00
fffcfc00
0305fd02
f800fb00
00030201
02fd0001
0301fd01
fcfffe00
fc0404ff
fc040400
07040002
f8feef01
ff070100
1209f7fe
0af9fa01
0af7fa01
03fffc01
00f9ff00
f80501fe
fb09ff00
06090105
f6050001
fcff0201
0702fc01
04ff0001
04ff0000
04fc0101
02fcfb01
0700fd00
fcfe0000
01feff00
0700ff00
fd010200
ff04fe00
fcff0600
0001ff00
04ff0300
0402fe01
01ff01fe
fffef800
00f9fffd
00fff5fe
fafdf700
ff02fafd
06f402fd
f1ff0f02
fd03fd00
0502fb00
fd00fb01
02060200
00000400
02fe0000
fe0105ff
fc000500
0103ff00
fd02ff00
ff000000
03070600
020101fe
f7fcfeff
0003f701
fdfdff00
00020600
fff9fb01
fafc0301
fdf7fb02
0501f602
01fe0401
0607fc02
fff8f202
04fffa02
fc000100
06f70401
0cff0501
05040001
fd02ff00
fbfe0100
0403ff00
fbfd0000
06fb0401
fe000100
fb01f800
fd0302fe
f9fe0401
0306fd01
0509f500
fffb04fe
fefe0d04
060efb05
0f08fefc
fcfd0002
08fd0103
fdf501ff
fbf90b03
feff0400
0602fe00
02fffeff
02f5ff00
ff04fd02
fe020401
02000200
0101ff01
03010102
0501fa00
0603fcff
fafd0500
0706fe03
fb05f3ff
03fd0500
06fdfa00
feff00ff
f8000300
fb02ffff
03040700
f5000cff
02fdfd04
ff000300
f903ffff
04000601
fd030600
fafc0600
01fcff00
fe01ff01
0005fe00
03fc0000
ff050300
fb030300
f7000500
fcfafafe
01fefc00
fe00fa01
00fefe01
f7fe05f9
0306f8fc
08040003
0906f6fe
fc020601
10030002
fd00fb00
ff02fe01
fc040400
fd0300ff
01010aff
fdfef801
0101ff01
02feff01
fefff602
ff08ff00
0101f800
01fcfa00
00000100
0101ff00
0300fe02
05fbfc00
f80106ff
06fbf7ff
02fef301
f1fffc02
fffe0600
000104ff
000503fe
0100ffff
01feff00
fcff0200
07fdf602
050afffc
04020201
01030000
01000000
01000100
00000101
01fffcff
07fdf803
f703feff
fcff0100
01fef401
f8f40af7
eef80702
07ff0100
04010700
0604fb00
f9fbfc00
000001fe
ff04fdff
05fffc01
00ff0300
0100fc00
ffff0200
00000404
0ef80802
00fd03ff
0301fdff
fe000001
f500ff01
0501fe00
02050702
02030100
ffff0300
f6f60afb
f6f30e03
fb01fd01
fa010300
ff00fe00
0301fc01
fdfaff03
0ef80e02
04fcf800
f7fd07fe
04040404
fa01ff01
05fc0603
05fcff02
01fefd01
fefefd00
fbffff00
fe01fa01
05fd0100
fffbff00
01ff02ff
fcfefd01
060405fe
f8000001
fffd0000
020701ff
fe0000ff
ffff0100
feff0301
0007fc01
0003fa05
01fc0600
01fe0501
00fe0300
0203fe01
fcfefe01
fcf4f6fd
03fd0afe
01fe0200
02fc0100
05fb01ff
01ff0700
fdfbfb01
fe000202
00000400
fe01fe00
fdfe05fe
ec000501
07ff0400
0404f4ff
05fdfcfe
0a0403fe
0306fc01
0805fcfe
fffffd00
0a01fa00
fefd03ff
fa01ff00
fd0003ff
06ff0500
fdff00ff
02fbfd00
f9f606fe
f4fa0603
00fe0300
05ff0600
070206ff
fef804ff
fcff0000
0004fd00
03fc0100
0cfb0501
0708fa02
0b06fbfe
00000100
fb060400
ffff0601
01fd0401
0101fbff
f803f6fd
0801f902
fd04feff
01040601
fb000000
0502fa00
0100ff00
0000fe00
fafbff00
0708fb00
030af2fe
00fa0201
08f9f703
fc0402fb
fd0204ff
ffff07fe
05fb0800
0600f401
fa000300
0cfdfc01
fd05f8fe
0403feff
f5010a01
04030001
06ff0000
ffff0501
04030300
fd010302
0a05f200
010efa04
0104fe00
00fe0400
02000000
04fefe01
fbfff9ff
fc0500fe
02fffc00
fd0605ff
fb05f0ff
ff0501ff
f60501ff
fc010000
0303f800
fd030101
fe01fc01
fcfd0902
0efbf602
fe01feff
0000f700
0101fe00
0200fb00
0601feff
05fe0200
fc050401
00fbf900
0306fa00
f803ffff
faffff01
0302fe01
05040304
01fd0203
ff020200
0102fe00
fefa02fd
0202fbff
fe00ff00
05fef801
0601fc02
fe00f501
01ff0301
02010200
02070c00
0504ff00
02fe03ff
01000500
fff403fd
09fb0803
01020001
00010201
04fb01fe
fafb0101
030002ff
fd07fdfe
0200ff00
0505f900
fbfd0100
fdff0100
f7030200
f705f400
00000000
fefe0000
05fdfb02
0b01f401
ff070200
0303fa00
01fc0900
0302f500
fd090304
0f05fafe
faff0400
ff020300
030101ff
ff000300
fe01fc00
fd02fa00
fef704fe
f8000a02
f5ff0500
0200fa00
00fd06fd
02fb0301
05fcf8ff
fb09f8ff
f9ff0101
0502fa01
02040200
fbfd0500
f5f50bfb
fff60b04
ffff0502
fafa0101
00fd0100
00040400
f70701ff
ff0002ff
f2030c02
0dfef802
0207fd00
fdfd00ff
0605ff03
fc01ff00
fe01fb01
f702fd00
00030000
fd020000
04fdf802
0607fa00
04fcfe00
f9f6fa01
fbf9f4f7
040bf8f6
050702ff
f7fcfcff
f9fc0105
f5f30103
00fe0200
0200ff00
09fbfd00
f0fe0bff
f8fa07ff
f8f9fc01
f9f9f4fb
0902f9fc
03040100
fffafc00
01fc0100
05fefb00
fbfd0501
0504fa01
fe030600
fffe0100
f80b06fe
0afffe01
00fefc01
00020201
fd0a0502
fbf8fc00
00000000
00000000
00000000
00000000
00000000
00000000
00000000
00000000
00000000
00000000
00000000
00000000
00000000
00000000
00000000
00000000
00000000
00000000
00000000
00000000
00000000
00000000
00000000
00000000
00000000
00000000
00000000
00000000
00000000
00000000
00000000
00000000
00000000
00000000
00000000
00000000
00000000
00000000
00000000
00000000
00000000
00000000
00000000
00000000
00000000
00000000
00000000
00000000
00000000
00000000
00000000
00000000
00000000
00000000
00000000
00000000
00000000
00000000
00000000
00000000
00000000
00000000
00000000
00000000
00000000
00000000
00000000
00000000
00000000
00000000
00000000
00000000
00000000
00000000
00000000
00000000
00000000
00000000
00000000
00000000
00000000
00000000
00000000
00000000
00000000
00000000
00000000
00000000
00000000
00000000
00000000
00000000
00000000
00000000
00000000
00000000
00000000
00000000
00000000
00000000
00000000
00000000
00000000
00000000
00000000
00000000
00000000
00000000
00000000
00000000
00000000
00000000
00000000
00000000
00000000
00000000
00000000
00000000
00000000
00000000
00000000
00000000
00000000
00000000
00000000
00000000
00000000
00000000
00000000
00000000
00000000
00000000
00000000
00000000
00000000
00000000
00000000
00000000
00000000
00000000
00000000
00000000
00000000
00000000
00000000
00000000
00000000
00000000
00000000
00000000
00000000
00000000
00000000
00000000
00000000
00000000
00000000
00000000
00000000
00000000
00000000
00000000
00000000
00000000
00000000
00000000
00000000
00000000
00000000
00000000
00000000
00000000
00000000
00000000
00000000
00000000
00000000
00000000
00000000
00000000
00000000
00000000
00000000
00000000
00000000
00000000
00000000
00000000
00000000
00000000
00000000
00000000
00000000
00000000
00000000
00000000
00000000
00000000
00000000
00000000
00000000
00000000
00000000
00000000
00000000
00000000
00000000
00000000
00000000
00000000
00000000
00000000
00000000
00000000
00000000
00000000
00000000
00000000
00000000
00000000
00000000
00000000
00000000
00000000
00000000
00000000
00000000
00000000
00000000
00000000
00000000
00000000
00000000
00000000
00000000
00000000
00000000
00000000
00000000
00000000
00000000
00000000
00000000
00000000
00000000
00000000
00000000
00000000
00000000
00000000
00000000
00000000
00000000
00000000
00000000
00000000
00000000
00000000
00000000
00000000
00000000
00000000
00000000
00000000
00000000
00000000
00000000
00000000
00000000
00000000
00000000
00000000
00000000
00000000
00000000
00000000
00000000
00000000
00000000
00000000
00000000
00000000
00000000
00000000
00000000
00000000
00000000
00000000
00000000
00000000
00000000
00000000
00000000
00000000
00000000
00000000
00000000
00000000
00000000
00000000
00000000
00000000
00000000
00000000
00000000
00000000
00000000
00000000
00000000
00000000
00000000
00000000
00000000
00000000
00000000
00000000
00000000
00000000
00000000
00000000
00000000
00000000
00000000
00000000
00000000
00000000
00000000
00000000
00000000
00000000
00000000
00000000
00000000
00000000
00000000
00000000
00000000
00000000
00000000
00000000
00000000
00000000
00000000
00000000
00000000
00000000
00000000
00000000
00000000
00000000
00000000
00000000
00000000
00000000
00000000
00000000
00000000
00000000
00000000
00000000
00000000
00000000
00000000
00000000
00000000
00000000
00000000
00000000
00000000
00000000
00000000
00000000
00000000
00000000
00000000
00000000
00000000
00000000
00000000
00000000
00000000
00000000
00000000
00000000
00000000
00000000
00000000
00000000
00000000
00000000
00000000
00000000
00000000
00000000
00000000
00000000
00000000
00000000
00000000
00000000
00000000
00000000
00000000
00000000
00000000
00000000
00000000
00000000
00000000
00000000
00000000
00000000
00000000
00000000
00000000
00000000
00000000
00000000
00000000
00000000
00000000
00000000
00000000
00000000
00000000
00000000
00000000
00000000
00000000
00000000
00000000
00000000
00000000
00000000
00000000
00000000
00000000
00000000
00000000
00000000
00000000
00000000
00000000
00000000
00000000
00000000
00000000
00000000
00000000
00000000
00000000
00000000
00000000
00000000
00000000
00000000
00000000
00000000
00000000
00000000
00000000
00000000
00000000
00000000
00000000
00000000
00000000
00000000
00000000
00000000
00000000
00000000
00000000
00000000
00000000
00000000
00000000
00000000
00000000
00000000
00000000
00000000
00000000
00000000
00000000
00000000
00000000
00000000
00000000
00000000
00000000
00000000
00000000
00000000
00000000
00000000
00000000
00000000
00000000
00000000
00000000
00000000
00000000
00000000
00000000
00000000
00000000
00000000
00000000
00000000
00000000
00000000
00000000
00000000
00000000
00000000
00000000
00000000
00000000
00000000
00000000
00000000
00000000
00000000
00000000
00000000
00000000
00000000
00000000
00000000
00000000
00000000
00000000
00000000
00000000
00000000
00000000
00000000
00000000
00000000
00000000
00000000
00000000
00000000
00000000
00000000
00000000
00000000
00000000
00000000
00000000
00000000
00000000
00000000
00000000
00000000
00000000
00000000
00000000
00000000
00000000
00000000
00000000
00000000
00000000
00000000
00000000
00000000
00000000
00000000
00000000
00000000
00000000
00000000
00000000
00000000
00000000
00000000
00000000
00000000
00000000
00000000
00000000
00000000
00000000
00000000
00000000
00000000
00000000
00000000
00000000
00000000
00000000
00000000
00000000
00000000
00000000
00000000
00000000
00000000
00000000
00000000
00000000
00000000
00000000
00000000
00000000
00000000
00000000
00000000
00000000
00000000
00000000
00000000
00000000
00000000
00000000
00000000
00000000
00000000
00000000
00000000
00000000
00000000
00000000
00000000
00000000
00000000
00000000
00000000
00000000
00000000
00000000
00000000
00000000
00000000
00000000
00000000
00000000
00000000
00000000
00000000
00000000
00000000
00000000
00000000
00000000
00000000
00000000
00000000
00000000
00000000
00000000
00000000
00000000
00000000
00000000
00000000
00000000
00000000
00000000
00000000
00000000
00000000
00000000
00000000
00000000
00000000
00000000
00000000
00000000
00000000
00000000
00000000
00000000
00000000
00000000
00000000
00000000
00000000
00000000
00000000
00000000
00000000
00000000
00000000
00000000
00000000
00000000
00000000
00000000
00000000
00000000
00000000
00000000
00000000
00000000
00000000
00000000
00000000
00000000
00000000
00000000
00000000
00000000
00000000
00000000
00000000
00000000
00000000
00000000
00000000
00000000
00000000
00000000
00000000
00000000
00000000
00000000
00000000
00000000
00000000
00000000
00000000
00000000
00000000
00000000
00000000
00000000
00000000
00000000
00000000
00000000
00000000
00000000
00000000
00000000
00000000
00000000
00000000
00000000
00000000
00000000
00000000
00000000
00000000
00000000
00000000
00000000
00000000
00000000
00000000
00000000
00000000
00000000
00000000
00000000
00000000
00000000
00000000
00000000
00000000
00000000
00000000
00000000
00000000
00000000
00000000
00000000
00000000
00000000
00000000
00000000
00000000
00000000
00000000
00000000
00000000
00000000
00000000
00000000
00000000
00000000
00000000
00000000
00000000
00000000
00000000
00000000
00000000
00000000
00000000
00000000
00000000
00000000
00000000
00000000
00000000
00000000
00000000
00000000
00000000
00000000
00000000
00000000
00000000
00000000
00000000
00000000
00000000
00000000
00000000
00000000
00000000
00000000
00000000
00000000
00000000
00000000
00000000
00000000
00000000
00000000
00000000
00000000
00000000
00000000
00000000
00000000
00000000
00000000
00000000
00000000
00000000
00000000
00000000
00000000
00000000
00000000
00000000
00000000
00000000
00000000
00000000
00000000
00000000
00000000
00000000
00000000
00000000
00000000
00000000
00000000
00000000
00000000
00000000
00000000
00000000
00000000
00000000
00000000
00000000
00000000
00000000
00000000
00000000
00000000
00000000
00000000
00000000
00000000
00000000
00000000
00000000
00000000
00000000
00000000
00000000
00000000
00000000
00000000
00000000
00000000
00000000
00000000
00000000
00000000
00000000
00000000
00000000
00000000
00000000
00000000
00000000
00000000
00000000
00000000
00000000
00000000
00000000
00000000
00000000
00000000
00000000
00000000
00000000
00000000
00000000
00000000
00000000
00000000
00000000
00000000
00000000
00000000
00000000
00000000
00000000
00000000
00000000
00000000
00000000
00000000
00000000
00000000
00000000
00000000
00000000
00000000
00000000
00000000
00000000
00000000
00000000
00000000
00000000
00000000
00000000
00000000
00000000
00000000
00000000
00000000
00000000
00000000
00000000
00000000
00000000
00000000
00000000
00000000
00000000
00000000
00000000
00000000
00000000
00000000
00000000
00000000
00000000
00000000
00000000
00000000
00000000
00000000
00000000
00000000
00000000
00000000
00000000
00000000
00000000
00000000
00000000
00000000
00000000
00000000
00000000
00000000
00000000
00000000
00000000
00000000
00000000
00000000
00000000
00000000
00000000
00000000
00000000
00000000
00000000
00000000
00000000
00000000
00000000
00000000
00000000
00000000
00000000
00000000
00000000
00000000
00000000
00000000
00000000
00000000
00000000
00000000
00000000
00000000
00000000
00000000
00000000
00000000
00000000
00000000
00000000
00000000
00000000
00000000
00000000
00000000
00000000
00000000
00000000
00000000
00000000
00000000
00000000
00000000
00000000
00000000
00000000
00000000
00000000
00000000
00000000
00000000
00000000
00000000
00000000
00000000
00000000
00000000
00000000
00000000
00000000
00000000
00000000
00000000
00000000
00000000
00000000
00000000
00000000
00000000
00000000
00000000
00000000
00000000
00000000
00000000
00000000
00000000
00000000
00000000
00000000
00000000
00000000
00000000
00000000
00000000
00000000
00000000
00000000
00000000
00000000
00000000
00000000
00000000
00000000
00000000
00000000
00000000
00000000
00000000
00000000
00000000
00000000
00000000
00000000
00000000
00000000
00000000
00000000
00000000
00000000
00000000
00000000
00000000
00000000
00000000
00000000
00000000
00000000
00000000
00000000
00000000
00000000
00000000
00000000
00000000
00000000
00000000
00000000
00000000
00000000
00000000
00000000
00000000
00000000
00000000
00000000
00000000
00000000
00000000
00000000
00000000
00000000
00000000
00000000
00000000
00000000
00000000
00000000
00000000
00000000
00000000
00000000
00000000
00000000
00000000
00000000
00000000
00000000
00000000
00000000
00000000
00000000
00000000
00000000
00000000
00000000
00000000
00000000
00000000
00000000
00000000
00000000
00000000
00000000
00000000
00000000
00000000
00000000
00000000
00000000
00000000
00000000
00000000
00000000
00000000
00000000
00000000
00000000
00000000
00000000
00000000
00000000
00000000
00000000
00000000
00000000
00000000
00000000
00000000
00000000
00000000
00000000
00000000
00000000
00000000
00000000
00000000
00000000
00000000
00000000
00000000
00000000
00000000
00000000
00000000
00000000
00000000
00000000
00000000
00000000
00000000
00000000
00000000
00000000
00000000
00000000
00000000
00000000
00000000
00000000
00000000
00000000
00000000
00000000
00000000
00000000
00000000
00000000
00000000
00000000
00000000
00000000
00000000
00000000
00000000
00000000
00000000
00000000
00000000
00000000
00000000
00000000
00000000
00000000
00000000
00000000
00000000
00000000
00000000
00000000
00000000
00000000
00000000
00000000
00000000
00000000
00000000
00000000
00000000
00000000
00000000
00000000
00000000
00000000
00000000
00000000
00000000
00000000
00000000
00000000
00000000
00000000
00000000
00000000
00000000
00000000
00000000
00000000
00000000
00000000
00000000
00000000
00000000
00000000
00000000
00000000
00000000
00000000
00000000
00000000
00000000
00000000
00000000
00000000
00000000
00000000
00000000
00000000
00000000
00000000
00000000
00000000
00000000
00000000
00000000
00000000
00000000
00000000
00000000
00000000
00000000
00000000
00000000
00000000
00000000
00000000
00000000
00000000
00000000
00000000
00000000
00000000
00000000
00000000
00000000
00000000
00000000
00000000
00000000
00000000
00000000
00000000
00000000
00000000
00000000
00000000
00000000
00000000
00000000
00000000
00000000
00000000
00000000
00000000
00000000
00000000
00000000
00000000
00000000
00000000
00000000
00000000
00000000
00000000
00000000
00000000
00000000
00000000
00000000
00000000
00000000
00000000
00000000
00000000
00000000
00000000
00000000
00000000
00000000
00000000
00000000
00000000
00000000
00000000
00000000
00000000
00000000
00000000
00000000
00000000
00000000
00000000
00000000
00000000
00000000
00000000
00000000
00000000
00000000
00000000
00000000
00000000
00000000
00000000
00000000
00000000
00000000
00000000
00000000
00000000
00000000
00000000
00000000
00000000
00000000
00000000
00000000
00000000
00000000
00000000
00000000
00000000
00000000
00000000
00000000
00000000
00000000
00000000
00000000
00000000
00000000
00000000
00000000
00000000
00000000
00000000
00000000
00000000
00000000
00000000
00000000
00000000
00000000
00000000
00000000
00000000
00000000
00000000
00000000
00000000
00000000
00000000
00000000
00000000
00000000
00000000
00000000
00000000
00000000
00000000
00000000
00000000
00000000
00000000
00000000
00000000
00000000
00000000
00000000
00000000
00000000
00000000
00000000
00000000
00000000
00000000
00000000
00000000
00000000
00000000
00000000
00000000
00000000
00000000
00000000
00000000
00000000
00000000
00000000
00000000
00000000
00000000
00000000
00000000
00000000
00000000
00000000
00000000
00000000
00000000
00000000
00000000
00000000
00000000
00000000
00000000
00000000
00000000
00000000
00000000
00000000
00000000
00000000
00000000
00000000
00000000
00000000
00000000
00000000
00000000
00000000
00000000
00000000
00000000
00000000
00000000
00000000
00000000
00000000
00000000
00000000
00000000
00000000
00000000
00000000
00000000
00000000
00000000
00000000
00000000
00000000
00000000
00000000
00000000
00000000
00000000
00000000
00000000
00000000
00000000
00000000
00000000
00000000
00000000
00000000
00000000
00000000
00000000
00000000
00000000
00000000
00000000
00000000
00000000
00000000
00000000
00000000
00000000
00000000
00000000
00000000
00000000
00000000
00000000
00000000
00000000
00000000
00000000
00000000
00000000
00000000
00000000
00000000
00000000
00000000
00000000
00000000
00000000
00000000
00000000
00000000
00000000
00000000
00000000
00000000
00000000
00000000
00000000
00000000
00000000
00000000
00000000
00000000
00000000
00000000
00000000
00000000
00000000
00000000
00000000
00000000
00000000
00000000
00000000
00000000
00000000
00000000
00000000
00000000
00000000
00000000
00000000
00000000
00000000
00000000
00000000
00000000
00000000
00000000
00000000
00000000
00000000
00000000
00000000
00000000
00000000
00000000
00000000
00000000
00000000
00000000
00000000
00000000
00000000
00000000
00000000
00000000
00000000
00000000
00000000
00000000
00000000
00000000
00000000
00000000
00000000
00000000
00000000
00000000
00000000
00000000
00000000
00000000
00000000
00000000
00000000
00000000
00000000
00000000
00000000
00000000
00000000
00000000
00000000
00000000
00000000
00000000
00000000
00000000
00000000
00000000
00000000
00000000
00000000
00000000
00000000
00000000
00000000
00000000
00000000
00000000
00000000
00000000
00000000
00000000
00000000
00000000
00000000
00000000
00000000
00000000
00000000
00000000
00000000
00000000
00000000
00000000
00000000
00000000
00000000
00000000
00000000
00000000
00000000
00000000
00000000
00000000
00000000
00000000
00000000
00000000
00000000
00000000
00000000
00000000
00000000
00000000
00000000
00000000
00000000
00000000
00000000
00000000
00000000
00000000
00000000
00000000
00000000
00000000
00000000
00000000
00000000
00000000
00000000
00000000
00000000
00000000
00000000
00000000
00000000
00000000
00000000
00000000
00000000
00000000
00000000
00000000
00000000
00000000
00000000
00000000
00000000
00000000
00000000
00000000
00000000
00000000
00000000
00000000
00000000
00000000
00000000
00000000
00000000
00000000
00000000
00000000
00000000
00000000
00000000
00000000
00000000
00000000
00000000
00000000
00000000
00000000
00000000
00000000
00000000
00000000
00000000
00000000
00000000
00000000
00000000
00000000
00000000
00000000
00000000
00000000
00000000
00000000
00000000
00000000
00000000
00000000
00000000
00000000
00000000
00000000
00000000
00000000
00000000
00000000
00000000
00000000
00000000
00000000
00000000
00000000
00000000
00000000
00000000
00000000
00000000
00000000
00000000
00000000
00000000
00000000
00000000
00000000
00000000
00000000
00000000
00000000
00000000
00000000
00000000
00000000
00000000
00000000
00000000
00000000
00000000
00000000
00000000
00000000
00000000
00000000
00000000
00000000
00000000
00000000
00000000
00000000
00000000
00000000
00000000
00000000
00000000
00000000
00000000
00000000
00000000
00000000
00000000
00000000
00000000
00000000
00000000
00000000
00000000
00000000
00000000
00000000
00000000
00000000
00000000
00000000
00000000
00000000
00000000
00000000
00000000
00000000
00000000
00000000
00000000
00000000
00000000
00000000
00000000
00000000
00000000
00000000
00000000
00000000
00000000
00000000
00000000
00000000
00000000
00000000
00000000
00000000
00000000
00000000
00000000
00000000
00000000
00000000
00000000
00000000
00000000
00000000
00000000
00000000
00000000
00000000
00000000
00000000
00000000
00000000
00000000
00000000
00000000
00000000
00000000
00000000
00000000
00000000
00000000
00000000
00000000
00000000
00000000
00000000
00000000
00000000
00000000
00000000
00000000
00000000
00000000
00000000
00000000
00000000
00000000
00000000
00000000
00000000
00000000
00000000
00000000
00000000
00000000
00000000
00000000
00000000
00000000
00000000
00000000
00000000
00000000
00000000
00000000
00000000
00000000
00000000
00000000
00000000
00000000
00000000
00000000
00000000
00000000
00000000
00000000
00000000
00000000
00000000
00000000
00000000
00000000
00000000
00000000
00000000
00000000
00000000
00000000
00000000
00000000
00000000
00000000
00000000
00000000
00000000
00000000
00000000
00000000
00000000
00000000
00000000
00000000
00000000
00000000
00000000
00000000
00000000
00000000
00000000
00000000
00000000
00000000
00000000
00000000
00000000
00000000
00000000
00000000
00000000
00000000
00000000
00000000
00000000
00000000
00000000
00000000
00000000
00000000
00000000
00000000
00000000
00000000
00000000
00000000
00000000
00000000
00000000
00000000
00000000
00000000
00000000
00000000
00000000
00000000
00000000
00000000
00000000
00000000
00000000
00000000
00000000
00000000
00000000
00000000
00000000
00000000
00000000
00000000
00000000
00000000
00000000
00000000
00000000
00000000
00000000
00000000
00000000
00000000
00000000
00000000
00000000
00000000
00000000
00000000
00000000
00000000
00000000
00000000
00000000
00000000
00000000
00000000
00000000
00000000
00000000
00000000
00000000
00000000
00000000
00000000
00000000
00000000
00000000
00000000
00000000
00000000
00000000
00000000
00000000
00000000
00000000
00000000
00000000
00000000
00000000
00000000
00000000
00000000
00000000
00000000
00000000
00000000
00000000
00000000
00000000
00000000
00000000
00000000
00000000
00000000
00000000
00000000
00000000
00000000
00000000
00000000
00000000
00000000
00000000
00000000
00000000
00000000
00000000
00000000
00000000
00000000
00000000
00000000
00000000
00000000
00000000
00000000
00000000
00000000
00000000
00000000
00000000
00000000
00000000
00000000
00000000
00000000
00000000
00000000
00000000
00000000
00000000
00000000
00000000
00000000
00000000
00000000
00000000
00000000
00000000
00000000
00000000
00000000
00000000
00000000
00000000
00000000
00000000
00000000
00000000
00000000
00000000
00000000
00000000
00000000
00000000
00000000
00000000
00000000
00000000
00000000
00000000
00000000
00000000
00000000
00000000
00000000
00000000
00000000
00000000
00000000
00000000
00000000
00000000
00000000
00000000
00000000
00000000
00000000
00000000
00000000
00000000
00000000
00000000
00000000
00000000
00000000
00000000
00000000
00000000
00000000
00000000
00000000
00000000
00000000
00000000
00000000
00000000
00000000
00000000
00000000
00000000
00000000
00000000
00000000
00000000
00000000
00000000
00000000
00000000
00000000
00000000
00000000
00000000
00000000
00000000
00000000
00000000
00000000
00000000
00000000
00000000
00000000
00000000
00000000
00000000
00000000
00000000
00000000
00000000
00000000
00000000
00000000
00000000
00000000
00000000
00000000
00000000
00000000
00000000
00000000
00000000
00000000
00000000
00000000
00000000
00000000
00000000
00000000
00000000
00000000
00000000
00000000
00000000
00000000
00000000
00000000
00000000
00000000
00000000
00000000
00000000
00000000
00000000
00000000
00000000
00000000
00000000
00000000
00000000
00000000
00000000
00000000
00000000
00000000
00000000
00000000
00000000
00000000
00000000
00000000
00000000
00000000
00000000
00000000
00000000
00000000
00000000
00000000
00000000
00000000
00000000
00000000
00000000
00000000
00000000
00000000
00000000
00000000
00000000
00000000
00000000
00000000
00000000
00000000
00000000
00000000
00000000
00000000
00000000
00000000
00000000
00000000
00000000
00000000
00000000
00000000
00000000
00000000
00000000
00000000
00000000
00000000
00000000
00000000
00000000
00000000
00000000
00000000
00000000
00000000
00000000
00000000
00000000
00000000
00000000
00000000
00000000
00000000
00000000
00000000
00000000
00000000
00000000
00000000
00000000
00000000
00000000
00000000
00000000
00000000
00000000
00000000
00000000
00000000
00000000
00000000
00000000
00000000
00000000
00000000
00000000
00000000
00000000
00000000
00000000
00000000
00000000
00000000
00000000
00000000
00000000
00000000
00000000
00000000
00000000
00000000
00000000
00000000
00000000
00000000
00000000
00000000
00000000
00000000
00000000
00000000
00000000
00000000
00000000
00000000
00000000
00000000
00000000
00000000
00000000
00000000
00000000
00000000
00000000
00000000
00000000
00000000
00000000
00000000
00000000
00000000
00000000
00000000
00000000
00000000
00000000
00000000
00000000
00000000
00000000
00000000
00000000
00000000
00000000
00000000
00000000
00000000
00000000
00000000
00000000
00000000
00000000
00000000
00000000
00000000
00000000
00000000
00000000
00000000
00000000
00000000
00000000
00000000
00000000
00000000
00000000
00000000
00000000
00000000
00000000
00000000
00000000
00000000
00000000
00000000
00000000
00000000
00000000
00000000
00000000
00000000
00000000
00000000
00000000
00000000
00000000
00000000
00000000
00000000
00000000
00000000
00000000
00000000
00000000
00000000
00000000
00000000
00000000
00000000
00000000
00000000
00000000
00000000
00000000
00000000
00000000
00000000
00000000
00000000
00000000
00000000
00000000
00000000
00000000
00000000
00000000
00000000
00000000
00000000
00000000
00000000
00000000
00000000
00000000
00000000
00000000
00000000
00000000
00000000
00000000
00000000
00000000
00000000
00000000
00000000
00000000
00000000
00000000
00000000
00000000
00000000
00000000
00000000
00000000
00000000
00000000
00000000
00000000
00000000
00000000
00000000
00000000
00000000
00000000
00000000
00000000
00000000
00000000
00000000
00000000
00000000
00000000
00000000
00000000
00000000
00000000
00000000
00000000
00000000
00000000
00000000
00000000
00000000
00000000
00000000
00000000
00000000
00000000
00000000
00000000
00000000
00000000
00000000
00000000
00000000
00000000
00000000
00000000
00000000
00000000
00000000
00000000
00000000
00000000
00000000
00000000
00000000
00000000
00000000
00000000
00000000
00000000
00000000
00000000
00000000
00000000
00000000
00000000
00000000
00000000
00000000
00000000
00000000
00000000
00000000
00000000
00000000
00000000
00000000
00000000
00000000
00000000
00000000
00000000
00000000
00000000
00000000
00000000
00000000
00000000
00000000
00000000
00000000
00000000
00000000
00000000
00000000
00000000
00000000
00000000
00000000
00000000
00000000
00000000
00000000
00000000
00000000
00000000
00000000
00000000
00000000
00000000
00000000
00000000
00000000
00000000
00000000
00000000
00000000
00000000
00000000
00000000
00000000
00000000
00000000
00000000
00000000
00000000
00000000
00000000
00000000
00000000
00000000
00000000
00000000
00000000
00000000
00000000
00000000
00000000
00000000
00000000
00000000
00000000
00000000
00000000
00000000
00000000
00000000
00000000
00000000
00000000
00000000
00000000
00000000
00000000
00000000
00000000
00000000
00000000
00000000
00000000
00000000
00000000
00000000
00000000
00000000
00000000
00000000
00000000
00000000
00000000
00000000
00000000
00000000
00000000
00000000
00000000
00000000
00000000
00000000
00000000
00000000
00000000
00000000
00000000
00000000
00000000
00000000
00000000
00000000
00000000
00000000
00000000
00000000
00000000
00000000
00000000
00000000
00000000
00000000
00000000
00000000
00000000
00000000
00000000
00000000
00000000
00000000
00000000
00000000
00000000
00000000
00000000
00000000
00000000
00000000
00000000
00000000
00000000
00000000
00000000
00000000
00000000
00000000
00000000
00000000
00000000
00000000
00000000
00000000
00000000
00000000
00000000
00000000
00000000
00000000
00000000
00000000
00000000
00000000
00000000
00000000
00000000
00000000
00000000
00000000
00000000
00000000
00000000
00000000
00000000
00000000
00000000
00000000
00000000
00000000
00000000
00000000
00000000
00000000
00000000
00000000
00000000
00000000
00000000
00000000
00000000
00000000
00000000
00000000
00000000
00000000
00000000
00000000
00000000
00000000
00000000
00000000
00000000
00000000
00000000
00000000
00000000
00000000
00000000
00000000
00000000
00000000
00000000
00000000
00000000
00000000
00000000
00000000
00000000
00000000
00000000
00000000
00000000
00000000
00000000
00000000
00000000
00000000
00000000
00000000
00000000
00000000
00000000
00000000
00000000
00000000
00000000
00000000
00000000
00000000
00000000
00000000
00000000
00000000
00000000
00000000
00000000
00000000
00000000
00000000
00000000
00000000
00000000
00000000
00000000
00000000
00000000
00000000
00000000
00000000
00000000
00000000
00000000
00000000
00000000
00000000
00000000
00000000
00000000
00000000
00000000
00000000
00000000
00000000
00000000
00000000
00000000
00000000
00000000
00000000
00000000
00000000
00000000
00000000
00000000
00000000
00000000
00000000
00000000
00000000
00000000
00000000
00000000
00000000
00000000
00000000
00000000
00000000
00000000
00000000
00000000
00000000
00000000
00000000
00000000
00000000
00000000
00000000
00000000
