00000012
00000033
0000000a
00000057
ffffff9a
ffffffef
00000000
fffffff9
ffffffbf
ffffffb8
0000009d
ffffffc3
00000089
ffffff37
00000003
00000062
0000006d
ffffffc9
0000000f
00000027
00000017
00000013
00000010
00000025
0000003c
00000006
ffffffbc
ffffffd7
ffffff8f
00000028
fffffffa
0000008f
ffffffef
0000005a
00000015
ffffffe4
ffffffd4
ffffff75
ffffffe3
00000070
00000025
ffffffcc
fffffff8
ffffffd3
ffffffdc
00000000
0000000a
ffffff5f
ffffffe3
0000000c
0000001d
ffffffd8
00000011
ffffffdc
ffffffd6
00000021
fffffff3
0000001f
ffffffb0
ffffffea
00000009
ffffffc0
ffffffd3
fffffffc
ffffff7b
ffffff8d
ffffff43
00000046
ffffffcd
fffffff9
00000071
ffffffae
0000000c
ffffff55
00000037
ffffff62
00000017
ffffff9c
ffffffca
ffffffcf
ffffff74
ffffffaf
ffffffaf
ffffff93
ffffff5d
ffffffc6
00000070
0000000c
00000031
00000034
ffffff3e
000000a0
ffffff8c
00000053
ffffff8e
00000012
ffffffe2
ffffffdf
ffffffc5
0000001b
ffffff56
ffffffae
0000008d
00000006
ffffffd8
ffffffd6
0000000d
ffffffa3
ffffff9a
ffffffcd
000000c9
00000067
0000006a
00000003
ffffffec
00000055
ffffffca
0000000f
ffffff84
00000058
00000013
ffffffee
0000005e
ffffff89
ffffffda
000000a1
00000079
ffffff40
fffffffc
ffffffaa
ffffffb1
fffffffe
00000041
00000001
00000008
fffffff4
ffffffda
00000000
00000001
ffffffff
00000001
00000000
00000001
0000006c
ffffffff
ffffffff
fffffffe
00000065
ffffffff
00000000
00000001
00000001
ffffffff
00000001
00000001
00000000
00000022
00000001
ffffffff
ffffffd1
ffffffd4
00000031
00000001
0000002c
00000002
fffffff8
00000002
fffffffe
ffffff96
00000037
ffffffff
00000001
fffffff1
fffffff6
0000008f
ffffffd1
00000000
00000001
00000088
00000000
00000050
ffffffff
ffffffff
00000002
00000002
00000000
00000000
000000a1
ffffffd0
00000000
ffffffff
00000001
ffffffbc
0000000c
ffffffc3
00000030
0000000b
ffffffe1
0000001f
ffffffdf
ffffffd2
ffffff96
00000007
ffffffdd
00000041
ffffffc3
fffffff2
00000021
ffffffde
0000005a
0000000a
00000037
00000043
00000015
ffffff43
ffffffec
ffffffbf
ffffffe1
00000028
ffffffe4
00000040
00000012
ffffff94
00000028
fffffffe
fffffffe
ffffffe4
00000022
00000019
0000001f
00000012
fffffffc
000000a0
ffffffe6
00000044
00000028
fffffffa
00000005
00000013
00000001
00000000
0000000c
00000076
ffffffec
ffffffc2
ffffff7c
ffffffa6
000000b5
00000027
ffffffdb
00000001
00000054
00000009
ffffffec
00000016
ffffffea
fffffffb
00000000
ffffffff
00000000
00000000
00000000
fffffffe
00000000
00000002
00000001
00000002
00000002
0000000a
fffffffe
00000000
fffffffe
fffffffe
ffffffff
ffffffff
ffffffff
00000001
00000000
fffffffd
00000001
ffffffff
fffffffc
fffffffc
00000001
00000001
00000002
00000000
ffffffff
00000000
00000003
00000000
00000003
ffffffff
00000002
00000000
fffffffc
fffffffc
ffffffff
00000000
00000000
fffffffd
00000001
ffffffff
00000001
00000002
00000000
00000000
00000002
fffffffe
fffffffe
00000005
00000003
fffffffc
00000000
00000001
00000002
00000002
00000001
00000000
fffffffe
00000002
00000001
ffffffff
ffffffff
ffffffff
fffffffe
00000002
00000001
ffffffff
fffffffc
fffffffe
00000005
fffffffd
fffffffe
fffffffd
00000001
00000003
00000001
00000001
ffffffff
fffffffe
fffffffe
00000000
ffffffff
fffffffc
00000000
00000001
fffffffb
00000001
ffffffff
00000000
00000000
00000000
00000000
fffffffd
fffffffe
fffffffa
fffffffe
ffffffff
fffffffe
00000000
ffffffff
00000000
ffffffff
fffffffd
00000002
ffffffff
00000000
00000000
00000001
00000002
00000000
fffffffe
00000001
fffffff4
fffffffe
ffffffff
0000000b
00000005
00000000
00000001
00000002
ffffffff
ffffffff
fffffffa
00000001
00000001
00000001
00000002
fffffff2
ffffffff
ffffffff
00000000
00000005
fffffffd
fffffffb
00000001
00000001
fffffffe
ffffffff
00000000
fffffffc
00000000
00000001
00000000
00000002
00000001
00000009
ffffffff
00000000
00000003
00000001
00000000
fffffff4
00000002
ffffffff
00000002
00000000
00000000
00000000
00000002
ffffffff
00000001
ffffffff
fffffffa
fffffff9
fffffffe
fffffffd
fffffffc
00000001
ffffffff
00000001
00000000
00000003
00000001
00000001
00000002
00000001
ffffffff
fffffffe
fffffffe
00000000
00000006
fffffffe
00000001
00000001
fffffffe
00000000
fffffffe
00000000
fffffffe
00000000
00000001
00000001
00000000
00000000
00000002
00000000
fffffff8
00000001
00000004
00000004
ffffffff
ffffffff
fffffffb
00000001
fffffffd
ffffffff
00000003
fffffffc
00000000
00000000
00000004
00000000
00000000
fffffffe
00000000
00000000
00000000
00000000
00000000
00000000
ffffffff
fffffffe
00000003
ffffffff
fffffffe
00000003
fffffffc
fffffffe
00000005
fffffffe
ffffffff
fffffff9
fffffffd
00000002
fffffffc
00000000
0000001e
00000000
fffffffa
00000001
fffffffe
00000000
0000000a
ffffffff
00000003
00000001
fffffffe
ffffffff
00000000
fffffffe
fffff7b1
fffff9aa
fffff9ae
fffff9ea
ffffff5e
fffff9bc
ffffff37
fffff43f
fffff7e9
fffffea9
fffff9d0
fffffc04
fffffa2f
fffffa20
fffff431
fffffee8
fffffaa2
fffff424
fffffd12
fffffdc5
ffffff33
ffffff06
ffffff03
fffff864
fffff872
fffff812
fffffc96
fffffa58
ffffff28
fffffef4
fffff582
fffff423
fffffef9
fffff953
fffffe7d
fffff56b
ffffff08
fffff49a
fffffad7
fffffe4c
fffffdc1
ffffff16
fffffa17
fffff9f4
fffffef8
fffffb9c
fffffa3b
fffffea6
ffffff4b
fffffef5
ffffff1e
ffffff45
fffffed2
ffffff05
fffff979
fffffdf5
fffffc64
fffffefe
ffffff0b
ffffff2a
ffffff08
fffff8b1
fffffe97
fffffe81
fffffee5
fffffcda
fffffef6
fffffa9a
ffffff3b
fffff3c4
ffffff43
fffffe82
fffffa8d
ffffff41
ffffff15
fffff9f9
fffffea3
fffffaee
fffff915
ffffff31
ffffff24
fffff809
ffffff40
fffffc48
fffffa81
fffffdc4
fffff42b
fffffee7
ffffff0d
fffff9eb
fffffdf8
fffffe72
fffffea2
fffffebf
fffff7ed
fffff834
ffffff10
fffff583
fffff992
fffffea2
fffffda4
fffff40d
fffffa0d
ffffff3f
fffffec7
fffff980
fffff88b
ffffff58
fffff6a9
fffffeed
ffffff04
ffffff10
fffffece
fffff7dc
fffffeb1
fffff9e4
fffffa97
fffffebe
fffff7f0
fffff823
ffffff08
fffff9fe
fffffba7
fffff3e9
fffff7dc
fffff826
fffffe5d
fffffed6
fffff9ae
fffffa00
fffffe30
fffffa2e
fffff819
fffffa0a
fffffec6
fffff95f
fffff9e0
0000009f
fffff5c2
fffffd8d
fffffe62
fffff8b0
fffffe30
fffffeae
fffff9ec
fffff3ea
ffffff25
fffff517
fffffe75
fffffe42
000000be
ffffff4e
00000083
fffff9d5
ffffff2e
fffffbb2
fffffa24
fffff740
fffffe17
fffffef2
fffffa17
fffff680
fffffeff
fffffa73
fffff43d
fffffef0
fffffda2
ffffff39
fffffee6
fffffe68
fffffe67
fffffe8c
fffff421
ffffff39
fffffaa9
ffffff13
ffffff25
fffffeff
fffffece
fffffebc
fffff765
fffffa74
fffff4d0
fffffbba
fffffeb7
fffffdba
fffffb5b
ffffff31
fffffee1
fffff79d
fffffaff
ffffff38
fffffd1a
fffffe79
ffffff28
fffff94e
ffffff31
fffffef2
fffffb4e
fffff8da
fffffd4a
ffffff33
fffff78a
fffffa4e
fffffa3f
fffffef0
fffff9f0
fffff9fa
fffffb94
fffff7ef
fffffef9
fffffe98
fffff3ca
fffffa7d
fffff8c1
fffffe72
fffffbea
fffffef4
fffff9a9
fffff7a4
fffffafd
ffffff44
fffffee7
fffffd6d
ffffff24
fffffdc3
fffff8ac
fffffd3a
fffffa31
fffff831
fffffe7c
fffff930
ffffff30
fffffed6
fffffed9
fffffedb
fffffed4
fffffa0a
fffffa83
00000077
ffffff2a
fffff9e2
fffff88a
fffffe79
fffffe93
fffffe2e
fffffe18
ffffff3a
fffffec9
ffffff0f
fffffa68
fffffdbb
fffff9f6
fffffe95
fffffe34
fffff7e9
00000005
00000003
00000001
fffffff9
00000000
00000001
fffffffc
fffffff4
00000007
00000002
fffffffc
ffffffff
fffffffb
00000008
00000003
00000003
ffffffff
fffffffe
00000007
fffffffe
00000007
fffffffc
00000004
fffffffe
00000003
00000001
00000002
00000001
00000003
fffffffd
00000004
00000001
00000004
00000004
00000002
00000007
00000003
00000004
00000005
00000006
fffffff9
00000003
00000004
00000001
00000003
ffffffff
00000007
00000005
00000007
00000005
00000002
00000003
fffffffb
00000000
fffffffe
fffffffa
0000000a
0000000a
00000002
00000003
fffffffc
00000002
00000004
ffffffff
00000001
00000005
00000002
fffffffc
00000008
00000006
00000001
00000002
ffffffff
0000003b
00000000
fffffff7
00000007
00000001
fffffffd
fffffffb
fffffffe
00000002
00000000
00000004
fffffffd
00000001
0000000d
00000003
fffffffb
00000005
0000000b
00000006
fffffff8
00000001
00000000
00000003
00000002
00000003
fffffff9
fffffff8
fffffffa
fffffffa
fffffffe
00000027
00000003
0000000b
fffffffa
00000003
00000001
00000002
fffffff9
ffffffef
00000004
00000004
00000002
fffffffc
fffffff5
ffffffff
00000004
0000000b
00000003
00000006
ffffffe4
fffffffe
fffffffd
00000002
ffffffff
ffffffff
0000002e
fffffffa
00000007
00000006
00000000
00000021
00000000
00000001
fffffffc
fffffffd
ffffffe8
fffffffe
00000001
fffffffc
00000002
ffffffff
00000005
00000001
ffffffff
00000002
fffffffe
ffffffff
00000001
ffffffff
00000003
00000000
fffffffb
00000004
00000007
fffffff2
fffffffb
00000006
ffffffff
00000006
00000004
00000002
00000005
00000002
00000001
fffffffc
00000002
fffffff1
00000007
00000000
00000005
fffffffa
fffffff2
00000000
fffffffc
fffffffc
00000001
00000000
00000008
fffffff8
00000001
00000006
fffffff8
fffffffe
00000000
00000001
fffffffe
fffffffe
fffffff9
ffffffff
00000001
00000009
00000001
00000002
00000001
00000000
ffffffff
00000002
00000006
fffffffd
ffffff87
00000005
fffffffb
fffffff4
00000009
ffffffff
fffffffe
fffffffd
00000003
00000000
fffffffe
00000000
00000002
fffffffe
00000000
00000001
00000004
ffffffff
fffffffa
fffffffa
00000002
fffffffe
fffffffa
0000000a
00000001
00000008
00000006
00000002
00000006
ffffffe6
fffffffd
fffffffe
fffffffe
ffffffff
00000001
fffffff1
00000000
fffffffe
00000007
00000001
00000007
00000000
00000003
00000003
00000002
00000006
0000001f
fffffffe
00000009
00000002
fffffffe
fffffff1
00000004
fffffffc
00000005
ffffffff
00000005
fffffffd
00000008
00000000
fffffffc
fffffffb
00000005
fffffffe
00000014
fffffffe
00000004
00000000
00000003
fffffff8
00000004
00000027
fffffffe
ffffffff
00000006
00000001
fffffffe
fffffffe
00000009
00000002
00000002
00000005
fffffffc
fffffffe
fffffffc
00000004
00000008
ffffffff
ffffffff
fffffff6
00000000
fffffffd
fffffffe
fffffffb
fffffffc
00000005
fffffffa
fffffffc
00000001
fffffffe
fffffffa
00000002
00000000
00000006
00000005
00000002
00000001
fffffffe
00000001
00000000
00000001
fffffffb
fffffffa
00000004
00000003
00000003
fffffffa
00000005
fffffffd
00000009
00000007
00000008
00000004
00000009
fffffff9
00000000
ffffffff
fffffff8
00000001
00000000
fffffffe
fffffffd
ffffffff
fffffffd
00000006
fffffff6
00000003
ffffffff
00000003
ffffffff
ffffffff
00000000
fffffffe
00000000
fffffffe
00000007
fffffffd
fffffffb
fffffffd
00000004
ffffffff
fffffffd
00000002
fffffffc
00000005
00000004
ffffffff
fffffffb
fffffffd
fffffffb
00000000
fffffffc
fffffff1
00000014
fffffffc
00000000
00000002
fffffffd
00000003
00000001
ffffffff
fffffff7
00000002
00000002
fffffff4
fffffffc
00000001
00000008
00000000
fffffff9
00000006
00000004
fffffee6
fffff9c6
ffffff13
fffffe88
ffffff47
fffffa00
ffffff29
fffffba1
fffff6dc
fffffb91
fffffebc
fffffebd
fffffee5
fffffe5b
fffffefa
fffffdaa
fffffa18
fffffe72
fffffc0a
fffff6e7
fffffa75
fffff958
fffffeb7
ffffff3a
fffffed2
fffff530
fffffdbf
ffffff24
fffffba2
fffffaa4
fffff8fe
ffffff15
fffff896
fffffeb5
fffff80a
ffffff0e
ffffff0f
ffffff87
fffffa08
fffffe61
fffff8e4
fffffeb7
fffffede
fffffec5
fffffe68
fffffb6b
fffff8c5
fffffa1d
00000041
ffffff1d
fffffeef
fffffaa2
ffffff7a
ffffff18
fffffe5b
fffff9c6
ffffff11
fffff671
fffff428
fffffe03
fffffa49
fffffaad
fffffa0f
0000004f
fffff992
ffffff0e
fffffa18
fffffd26
ffffff18
ffffff03
fffffe8e
fffffc62
fffffdcc
fffffa19
ffffff09
fffff63a
fffffec8
fffffe3c
fffff970
fffff46f
fffffe9f
fffffa2a
fffff9c9
fffffeac
fffff9d1
fffffa28
0000020e
fffff9e4
ffffff10
fffff852
ffffff0e
fffff934
fffffd1c
fffffefd
ffffff21
fffffe35
ffffff0b
ffffff21
fffffeae
fffffe74
fffffeb9
fffffe6b
ffffff2e
fffffee5
ffffff29
fffff3ae
fffffead
fffffefa
fffffa4b
fffffa1e
fffffe9d
fffffefb
fffffe9a
fffffcce
fffffe75
fffffc7f
fffff7a3
ffffff01
fffff9fa
fffffea2
fffffea9
fffffe15
fffff460
fffffbf4
ffffff16
fffff7bc
fffffecc
fffffd25
fffff47b
fffffead
fffffee6
fffff997
fffffd60
fffffb5c
fffffa12
fffff523
fffff8c0
ffffff04
fffffef8
fffffd51
fffff9f1
ffffff17
ffffff13
0000009e
fffffec6
fffffa83
fffff992
fffffe4c
fffff678
fffff44b
fffffbc4
fffff9ce
ffffff16
fffffde3
fffffeec
fffff916
fffff979
fffffe95
ffffff11
fffffe84
ffffff17
fffff8fc
fffff491
fffff7be
fffff780
fffffa85
fffffe92
fffffe8d
fffffbe9
fffffa3a
fffff9af
fffffe28
fffffecc
ffffff2a
fffffa6d
fffffc03
fffffea7
fffffeab
fffffa86
fffff9d6
fffff8fb
ffffff24
fffff9a6
fffff917
fffffc87
ffffff09
ffffff0a
fffffeb4
fffffefd
ffffff12
fffffe91
fffff552
ffffff0b
fffffb2f
000000aa
fffff7b7
fffffef5
fffff7e9
fffffec3
fffff978
fffffee7
fffffeee
fffffc20
fffffaef
fffffeae
fffff811
fffffeef
ffffff2f
ffffff2f
fffffe7c
fffff3e3
00000104
fffff97e
fffffa08
fffffeea
fffffabe
fffffa1e
fffff6ea
fffffe82
fffffeeb
ffffff1a
ffffff3b
ffffff0e
fffffe8c
fffffa62
fffffe9d
ffffff2c
fffffc48
fffffef0
fffff516
fffff76e
fffffa57
fffff314
fffffee2
fffff878
fffffe68
ffffff25
fffff9ea
fffffa9b
fffffec7
fffffba6
fffff8b4
fffffed3
fffffa1f
ffffff58
fffffef4
fffff9d3
fffffedb
fffff93c
fffffe90
fffffa45
fffffeff
fffffeb1
fffffea1
fffff8cb
fffff47a
ffffff12
fffffa2e
fffffa01
fffff9d1
fffff458
fffffef3
fffff7fe
ffffff0e
fffffe8e
fffff8cf
fffffef9
fffffef7
fffffd54
fffff465
fffffe97
fffff229
fffffee8
fffffaa6
ffffff0f
fffff9e8
fffffe88
fffffe00
fffffee9
fffff6e3
fffff9ea
fffffeb3
fffffa97
fffff8b1
fffffecf
fffffaba
fffffd36
fffffbef
fffffe26
ffffff11
fffff74d
fffff9f9
fffffbd1
fffffcb4
fffffa36
ffffff0e
fffffae6
ffffff25
ffffff1b
fffff71b
fffffef4
fffffbbd
fffffe2e
fffffa31
fffff766
ffffff20
fffffde5
fffff881
fffffeff
fffffe4f
ffffff01
000000dd
fffff89a
fffff5e8
fffffcf8
fffffef6
fffffdb4
fffffdd8
fffffe8e
fffffa3d
fffffe85
ffffff1b
ffffff35
fffffe82
fffff43b
fffffec9
fffffa0d
fffffef4
fffffead
fffffed1
ffffff1d
ffffff04
fffff8a3
ffffff23
fffff9e7
fffff97e
ffffff13
fffffe87
ffffff0c
fffffec3
000001b3
fffffdd0
fffffe78
fffff841
fffff8c0
fffff418
ffffff01
fffffc27
fffffebd
fffffa83
fffffe72
fffffee0
ffffff2f
fffffefe
fffffa2c
fffff825
ffffff00
ffffff1f
ffffff14
fffff2a6
fffffe88
fffff3fa
fffffe6f
ffffffff
fffffa68
fffffe8d
fffff64f
fffffdc3
fffffef1
ffffff0c
fffff9fe
fffffa1a
fffffa62
fffffcd7
fffff3cb
fffffed8
fffffa19
fffffa7e
fffff3f4
fffffeef
ffffff16
fffffe9f
ffffff36
fffff8e1
fffffee0
ffffff0e
fffffea6
fffff493
ffffff12
fffffe83
fffff9ce
ffffff04
ffffff17
ffffff12
ffffff0a
fffffec1
fffff818
fffff445
fffff805
fffffb30
fffff538
fffffef6
ffffff03
fffffc95
fffff927
ffffff08
fffffeb9
fffffe8a
fffffa23
fffffefe
ffffff09
fffff9f6
fffffca5
fffff9b1
fffffefa
fffff9d6
fffff88b
fffff6da
ffffff0e
fffff5f3
fffffed2
ffffff2f
fffffa4c
fffff8c7
fffff9fe
ffffff35
fffffe09
fffff8cc
ffffff0d
ffffff00
fffff9b9
ffffff32
00000088
ffffff34
fffff932
ffffff0a
fffffe5a
fffff824
fffff9e6
fffffa53
fffffda7
fffffe76
ffffff2e
fffff82b
fffffee4
00000159
fffff6c2
ffffff0c
fffffedc
fffff8cc
fffff8ee
fffff397
fffffa24
fffff7e1
ffffff2d
fffffa06
fffff7c6
fffff9cd
fffffe08
fffffe8e
ffffff1e
ffffff15
fffff6ff
fffff899
fffff8ac
ffffff38
ffffff13
fffffa26
fffffc19
ffffff01
fffff9d5
fffffee8
fffffa72
fffffed8
fffffea1
000000c1
fffff8a2
fffff3d2
ffffff0f
ffffff16
fffffeae
fffff61e
ffffff20
fffffd45
fffff96c
fffffede
fffffe0e
ffffff05
ffffff35
fffffe71
fffff810
fffff842
fffffa7a
ffffff0a
fffffeda
fffffa67
fffffec6
fffffae9
fffffea9
fffffe55
fffffb11
fffffe6a
fffff55b
ffffff1b
ffffff72
fffffdc8
ffffff1f
fffffed5
fffff305
fffffe1d
fffffbaf
fffff9cf
fffff9f2
ffffff07
fffffed4
fffffb24
fffffead
ffffff2e
fffffe74
ffffff22
ffffff2b
fffff879
ffffff2f
fffffe9e
fffffa71
fffffb07
fffffcf6
fffffe82
fffffa8c
fffffe60
fffffa8b
fffffee2
fffffc71
ffffff04
fffffe9f
fffffa04
fffff93f
ffffff19
fffffc76
fffffea7
fffffb06
fffff859
ffffff15
fffff8d1
fffff8e7
fffffa9a
fffffeea
fffffe73
fffffe4d
ffffff3f
fffffd80
fffff7ec
fffffba2
fffff9dc
fffffeca
ffffff1e
fffffd85
fffffcb1
fffffa06
fffff988
fffffe43
fffffe4b
fffff703
ffffff12
ffffff28
fffffa3a
fffffeff
fffff7d4
ffffff19
fffff9b9
fffff8dc
fffffa2d
fffff553
fffffef4
ffffff02
fffff86d
fffff9f1
fffff9d0
fffff4c1
fffffa91
fffffed9
fffff86e
ffffff1e
ffffff00
fffff457
fffff3fe
fffff9b6
fffffed8
ffffff1a
fffffa6e
fffffdb1
fffffa0f
ffffff21
fffff8d3
fffffefb
fffff9d4
fffff9a8
fffffde6
fffffefb
ffffffd4
fffffa10
ffffff58
fffffedf
ffffff19
fffffe7c
fffffe43
fffffe9f
fffffb76
fffffbab
fffffeab
ffffff5a
ffffff1e
fffffe97
fffff48b
fffff4c5
fffffe35
ffffff13
ffffff26
fffffed8
fffffede
fffffaa1
ffffff39
000002f5
fffff443
ffffff19
ffffff10
fffffe8d
ffffff53
fffffa0b
ffffff0d
fffff832
fffff440
fffff9b7
fffffedd
fffffa45
fffff8c0
fffff9b5
fffffd7c
fffffe26
fffffe96
fffff90d
fffff948
ffffff1b
fffff7f9
00000163
fffffb5d
fffffe65
fffffe74
00000093
fffff9ed
fffff864
ffffff36
fffffec0
fffffed3
fffff859
fffffaaa
fffff7f9
ffffff0d
fffffef6
fffffed3
fffffa13
fffff8fa
ffffff1f
ffffff1a
fffffbd2
00000030
fffff8e9
fffffe63
fffff460
fffff89f
fffffa12
fffffddc
fffff9b7
fffffeb2
fffffa77
fffff94d
fffffebc
fffffebc
ffffff0e
ffffff1c
fffffa58
fffffa4e
fffffb0e
fffffa0d
fffffebf
fffff946
fffff93a
fffff694
ffffff17
fffffeee
fffffd56
ffffff05
fffffee0
ffffff0d
fffffe77
fffffdda
fffffa08
ffffff33
fffffef3
fffffd15
fffffd76
fffff3e2
fffffea2
fffffe90
fffffef3
fffffeba
ffffff30
fffffdb5
ffffff31
fffff818
ffffff12
fffff9fc
fffff3e5
fffff41d
fffffcc8
fffff4ab
fffffee9
fffff822
fffffa33
fffff8ea
fffffa07
fffffa17
fffffeff
ffffffb3
fffffad7
fffffd0a
ffffff2f
fffff6fd
fffff81b
fffffedf
ffffff23
fffff834
fffffe99
fffff9cb
fffff7ec
ffffff05
00000051
ffffff17
ffffff26
fffff84f
ffffff33
fffff4b7
fffffeff
ffffff43
fffff968
fffff870
fffffee5
fffff614
fffff288
fffff99b
fffff69c
fffff9b4
ffffff14
fffff9f7
fffff846
fffff410
fffffe94
ffffff22
ffffff08
fffffeaa
fffffea6
ffffff0d
fffffa1d
ffffff17
fffff9ec
fffffef7
fffffee2
fffff9f4
fffffea7
fffffecc
ffffff27
fffff570
ffffff1c
fffff7bf
fffff3fd
fffff8af
fffff4ed
fffffef8
fffff408
fffffda2
fffffa08
ffffff22
ffffff16
fffffa01
fffff7da
fffff835
fffff9c2
ffffff0c
ffffff07
ffffff0f
fffffeff
fffffca8
fffff743
fffff9ee
ffffff11
ffffff30
fffffef1
fffffd0c
fffff7e2
ffffff0f
fffffe66
fffff8da
fffffa5e
ffffff09
fffffab9
fffffe7f
fffffb28
fffffe78
fffff935
ffffff0c
ffffff2a
fffff455
fffffe9c
fffffe9c
fffffe28
ffffff69
fffffeff
fffffee7
fffffa5c
0000006d
fffffa8f
fffffeeb
ffffff21
fffff3f9
ffffff30
fffffa12
ffffff15
fffffecc
fffff4f4
fffffa47
fffffe78
fffffe7c
ffffff21
fffffebd
fffff8b5
fffff7ea
ffffff47
ffffff04
fffff8b5
fffffe76
fffffe79
fffffa34
ffffff00
fffff887
fffffeb3
fffff99e
fffffebe
fffffe8c
fffffdf7
ffffff1c
fffffedd
fffffef6
fffffcdf
ffffff21
fffffea4
fffffe4b
fffffe49
fffff825
fffffa2c
fffff805
fffffea3
ffffff25
fffffa48
ffffff0e
fffffe66
ffffff13
fffffe18
ffffff0c
ffffff0b
ffffff0e
ffffff17
0000015a
fffffcf8
fffff773
fffffed8
fffffe7f
fffff48c
fffffaba
fffffa12
fffffed5
fffffa14
fffffa5a
fffffdac
fffff7f4
ffffff0d
fffff2d1
fffffd7e
fffffeb8
fffff828
fffffd70
ffffff47
fffffec3
ffffffe9
fffff9f3
fffff42b
ffffff44
