53a3791a
2269e235
a9233655
7aeb1695
e50d4068
681e9fca
5f52cf9b
87684a3a
5f76227c
bd06f7a7
e34b0c3e
f69a207c
b39ed262
22aed0eb
2e70831b
ea737af1
b4a7c98c
12e9f540
97f99204
035df143
fb1b67c9
c62c934f
98c337a6
b320789b
866c8615
fdc60b85
2c6e2a85
d76511ba
a4a2032d
d5b47655
8e4d74eb
d3e7079a
d56a376c
737eda44
a808cd15
533cd81c
fece56bd
55f16f0b
9b1a5608
aa0f071f
b146298f
46e9c88a
10dfeb30
903a9b62
ec103221
4ee6b144
bf8c7b7e
fd2b0e22
67ef418d
1c34e8bd
3b461f99
9f1c8c9d
51809733
730abf32
21527c99
85b44147
8d4f46b4
88b27cbf
40653d17
b34b350a
3604d49f
c9cad3bf
844b5b1e
2e276dae
