c209fcab
e95f3a7c
d1ffcdca
767dc17d
91a34d8e
1a488930
b9b6b2c1
4fce5de9
82e0033e
4063a969
dfced6e2
27416244
6d81f2c4
e039f1b0
d9cc9b48
d1c0dc02
eb46c0b8
9c876249
ae0ba737
cf9c4075
ba905c6c
16311624
570447df
e3fff93c
d035776d
40aa1ba3
8009669a
5e49ac72
01ee163b
6e1fdd75
706fe717
1abc449d
0ac5a1fb
faf65b29
9df213c2
e9b6c4b5
df9a7468
ec88a640
983f03a8
a65602d9
4df543fb
206db46c
f4be404d
ebce39d4
16633b60
919de946
f29f1d26
b1bab35c
cb12628a
63176560
52923afa
4b6af1bb
2cf61ad4
0f42be1b
66dabb3e
f72f32e3
bc54e163
fd6bf415
13f4320e
f621ee3a
e147c319
47f26704
244a40ae
644f7252
cb71cd0f
2b2c90d3
d0ae0acf
85489ba8
da673d98
fed845ac
98d9457b
c62d2116
7b3b5f9b
6b3bc218
a96cf657
03329995
6f56cac2
e605b27b
f2a30b09
a4c1fef2
ce3024f3
2ea3b392
0c007985
50547e2e
3f98f3f7
939c8068
0b3d2788
0fcc3619
023dd791
1d9f235a
7864df2c
86f2f1a4
d06754a9
81ad870e
a09cf355
2ee9a631
4ef8a40c
5927ee79
6010c1b3
9f936b30
1654a055
73e91874
7ccfb6ca
981b08b8
085bad42
e58ab87c
dae7f116
81dedc41
88f8ee74
c4d1962a
68aa11e4
70bf3310
7a1b016e
c8f610e9
eafa04d3
b1ce3f7b
439c248c
f9eeb0df
c6762390
43bc23e9
6eca940c
8bac944f
8e97d92e
be9b85ef
89352525
6ac24933
9a34111b
c1fd3bca
164a7b93
19ba6587
63a27ef5
7ca88881
a7438cba
711204f3
effd3bd7
37f69ff1
7d2de9f9
b3b1830b
e10c7943
6e47010d
60df6e1d
e8a57abc
2f27e765
af25ac6c
224a24d0
b4425031
2869fda0
31dd385c
73f8c1ba
d8ba5e57
64970911
f9ebdc5a
1fa75b41
ad1bad97
577852d5
d7ac6716
f825eacb
e7fc437b
0bc5cf9e
ce1e61f3
5d42a8c4
f2742f40
4c1d2b6f
2fb4ccd7
e8fd7bf4
84144b0b
cd54a4ed
86a29e80
af3499ce
dcf45daf
db607731
3eca345b
b101d102
b42eab2e
25d608b7
df8f3b88
4efcc4f2
0dd42475
6ee8a8d8
8b650910
2e8d75a8
f2ed3c0d
e7cf3dc3
cfcf052a
4cb2ee95
bb653417
5276d1ae
63f82b3b
4d8e33ae
c406a4f5
d8752e24
c239aaa0
7cdb75f8
f9c7f3c7
1f96f088
8f070c6d
1fe749b9
492de88d
e0de5961
dfc3684f
27dde8ec
7819b202
3174f491
3a27268d
f03b68e1
f65c69b6
5556cc3a
dacb6af5
8fc118d0
e84f15c3
d16cd3d2
3736874e
2d855651
c8de5047
423aaef4
3b47a734
910ff5d4
4cfb0c5f
216034e9
13d13c43
c6dc73bd
2f4e1f24
433a8b3a
123c02d3
dac3cb19
bbec8ebb
787977f7
3f40d375
832b3fba
02a94d5a
c859290e
f67641c8
4806259b
ad672546
c2e22e98
018650bf
6000349c
dea15d06
fb3c052e
a1151e85
364388ed
614413e5
23e6491b
9c6a2448
232fd41a
61f72bc0
630245eb
f01d6f64
38315102
afb32cbf
2e5e888c
5dc805d1
f6f8c2d9
d1d2dfa8
545e18b6
2a9cfb71
